<unk>	0
<s>	0
</s>	0
▁i	-2.73254
▁to	-3.5648
▁a	-3.61029
▁it	-3.73011
▁the	-3.78526
▁my	-3.80979
▁you	-3.93034
▁is	-4.02643
▁that	-4.14182
▁and	-4.15229
▁was	-4.19367
▁have	-4.43877
▁not	-4.44682
▁am	-4.51434
▁of	-4.52807
▁for	-4.56003
▁in	-4.64802
▁so	-4.74957
▁do	-4.86186
▁me	-4.91053
▁be	-5.04751
▁did	-5.05656
▁on	-5.13627
▁but	-5.17015
▁are	-5.18936
▁with	-5.22763
▁he	-5.23687
▁at	-5.2761
▁just	-5.28863
▁when	-5.30653
▁they	-5.31642
▁will	-5.36313
▁get	-5.39506
▁really	-5.44842
▁like	-5.45093
▁out	-5.45615
▁good	-5.48428
▁she	-5.49096
▁had	-5.5002
▁what	-5.51703
s	-5.51971
▁yes	-5.54668
▁time	-5.58545
▁about	-5.58586
▁all	-5.62415
▁got	-5.66582
▁this	-5.67097
▁up	-5.6739
▁your	-5.71325
▁been	-5.73052
▁her	-5.75954
▁can	-5.76324
▁going	-5.78587
▁would	-5.79869
▁well	-5.81125
▁go	-5.85375
▁one	-5.87066
▁we	-5.91054
▁work	-5.92257
▁very	-5.94244
▁some	-5.95019
ed	-5.96329
▁too	-5.96468
▁think	-5.96526
▁there	-5.98903
▁hope	-5.98971
▁them	-6.00657
▁know	-6.02671
▁how	-6.02837
ing	-6.03251
▁now	-6.04291
▁feel	-6.04489
▁new	-6.04609
▁him	-6.04632
▁were	-6.04638
▁no	-6.06876
▁day	-6.07638
▁from	-6.12987
▁sure	-6.15646
▁oh	-6.15742
▁last	-6.1608
▁an	-6.16607
▁as	-6.1874
▁always	-6.24703
▁back	-6.24853
▁friend	-6.25398
▁great	-6.2552
▁people	-6.33163
▁cannot	-6.35017
▁could	-6.36189
▁bad	-6.38508
▁or	-6.41159
▁if	-6.41372
▁happy	-6.41529
▁hard	-6.42586
▁job	-6.4372
▁much	-6.43925
▁see	-6.46016
▁went	-6.46322
▁nice	-6.47403
▁week	-6.48033
▁make	-6.48687
▁never	-6.48698
▁should	-6.49741
▁lot	-6.49863
▁other	-6.51568
▁school	-6.51633
▁car	-6.52643
▁has	-6.53103
▁today	-6.53162
▁friends	-6.53249
▁his	-6.55382
▁home	-6.56014
▁old	-6.57549
▁love	-6.57897
▁more	-6.58985
▁first	-6.5973
▁over	-6.61838
▁year	-6.63422
▁something	-6.66057
▁someone	-6.66617
▁life	-6.68964
▁long	-6.69584
▁though	-6.70505
▁better	-6.71124
▁years	-6.71633
▁by	-6.71713
▁dog	-6.71917
▁felt	-6.72131
▁still	-6.72301
▁must	-6.72464
▁family	-6.73152
▁way	-6.73528
▁kids	-6.74273
▁want	-6.75309
▁pretty	-6.75488
▁because	-6.75576
▁off	-6.76294
▁best	-6.76356
▁night	-6.76765
▁take	-6.77091
▁right	-6.786
▁things	-6.78894
▁does	-6.80435
▁little	-6.81438
▁next	-6.81624
▁house	-6.82531
▁made	-6.83426
▁even	-6.83524
▁maybe	-6.83694
▁find	-6.86195
▁after	-6.86388
d	-6.87885
▁away	-6.88229
▁then	-6.91242
▁getting	-6.91346
▁sounds	-6.91588
▁fun	-6.92548
▁money	-6.93466
▁need	-6.94412
▁why	-6.95158
▁into	-6.96467
▁any	-7.0137
▁found	-7.0142
▁before	-7.02564
▁being	-7.03355
▁our	-7.03405
▁feeling	-7.03838
▁wow	-7.04417
▁weekend	-7.04838
▁glad	-7.05121
▁down	-7.06546
▁thing	-7.08084
▁myself	-7.08361
▁saw	-7.08838
▁	-7.09471
▁hear	-7.09504
▁bet	-7.09803
▁days	-7.1022
▁kind	-7.10517
▁wish	-7.11182
▁wait	-7.11834
▁sometimes	-7.12092
▁able	-7.12586
▁who	-7.12685
▁try	-7.13735
▁yesterday	-7.13977
▁help	-7.1708
▁big	-7.17245
▁sorry	-7.17523
▁their	-7.18058
▁than	-7.18286
▁everything	-7.19531
▁around	-7.19949
ly	-7.21133
▁anything	-7.22428
▁recently	-7.22569
▁only	-7.2288
▁those	-7.23129
▁took	-7.24614
▁doing	-7.25391
▁looking	-7.25429
▁while	-7.25555
▁through	-7.26279
▁few	-7.27156
▁ever	-7.27694
▁thought	-7.27843
▁wife	-7.28086
▁having	-7.28191
▁son	-7.28455
▁makes	-7.28769
▁such	-7.29082
▁where	-7.29533
▁daughter	-7.30343
▁believe	-7.31393
▁keep	-7.31458
▁ago	-7.31542
▁again	-7.31644
▁ready	-7.31976
▁let	-7.32448
▁scared	-7.32693
▁every	-7.33249
▁soon	-7.34357
▁sad	-7.34699
▁many	-7.35142
▁wanted	-7.35221
▁brother	-7.35974
▁least	-7.37667
▁same	-7.39477
▁guess	-7.41588
▁come	-7.42288
▁lost	-7.4251
▁man	-7.42715
▁left	-7.43368
▁food	-7.43528
▁used	-7.44858
▁test	-7.45608
▁favorite	-7.45765
▁came	-7.46195
▁miss	-7.46938
▁since	-7.47052
▁girlfriend	-7.47378
▁live	-7.4746
▁hate	-7.48214
▁hopefully	-7.48342
▁put	-7.48855
▁excited	-7.48868
▁nervous	-7.49782
▁birthday	-7.49782
▁place	-7.49961
▁tell	-7.50521
▁done	-7.50921
▁once	-7.5148
y	-7.51547
▁alone	-7.5277
▁college	-7.53263
▁bought	-7.54299
▁coming	-7.5529
▁kid	-7.55435
▁say	-7.55607
▁care	-7.56284
▁tomorrow	-7.56448
▁show	-7.56923
▁us	-7.57024
▁everyone	-7.5723
▁mom	-7.57422
▁remember	-7.57577
▁party	-7.57602
▁another	-7.57627
▁game	-7.58007
▁start	-7.58584
▁here	-7.60038
▁trying	-7.60419
▁finally	-7.60684
▁husband	-7.61285
▁two	-7.61491
▁look	-7.62042
▁awesome	-7.62311
▁play	-7.62465
▁person	-7.63778
▁bit	-7.63898
▁haha	-7.65329
▁upset	-7.65695
▁trip	-7.65753
▁parents	-7.65783
▁mad	-7.66106
▁also	-7.66354
▁happened	-7.66579
▁cat	-7.67275
▁most	-7.68476
▁high	-7.68741
▁cool	-7.694
▁proud	-7.6989
▁scary	-7.69892
▁pay	-7.69923
▁might	-7.70341
▁passed	-7.71132
▁vacation	-7.71762
▁nothing	-7.71939
▁times	-7.7252
▁give	-7.72867
▁watch	-7.73076
▁month	-7.73548
▁end	-7.74475
▁working	-7.7454
▁actually	-7.74733
▁happen	-7.74922
▁together	-7.76641
▁talk	-7.77451
▁buy	-7.77857
▁told	-7.78114
▁almost	-7.7932
▁taking	-7.79322
▁quite	-7.79651
▁started	-7.79871
▁dad	-7.80156
▁forward	-7.8083
▁probably	-7.8157
▁tried	-7.82336
▁eat	-7.82437
▁said	-7.82587
▁without	-7.82649
▁hit	-7.83016
▁amazing	-7.84311
▁guy	-7.84474
▁world	-7.8527
▁won	-7.85432
▁heard	-7.86208
▁enough	-7.86228
▁months	-7.86413
e	-7.87059
▁morning	-7.87144
▁store	-7.87495
▁okay	-7.87563
▁weeks	-7.88627
▁super	-7.89459
▁own	-7.89725
▁yet	-7.90283
▁sister	-7.90437
▁move	-7.90585
▁waiting	-7.91084
▁enjoy	-7.91316
▁baby	-7.91536
▁understand	-7.92706
▁summer	-7.92947
▁movie	-7.92968
▁these	-7.9394
▁thinking	-7.94491
▁gave	-7.94799
▁else	-7.95259
▁yourself	-7.95379
▁sick	-7.95953
▁knew	-7.9625
▁memories	-7.96838
▁definitely	-7.96838
▁interview	-7.97045
▁stay	-7.97429
▁until	-7.97725
▁2	-7.9791
▁win	-7.98054
▁stuff	-7.9867
▁girl	-7.99733
▁afraid	-8.00441
▁close	-8.00808
nna	-8.01356
▁seems	-8.01571
▁leave	-8.01572
▁moved	-8.01785
▁died	-8.0202
▁call	-8.03281
▁guys	-8.03437
▁late	-8.03472
▁ate	-8.03704
▁seen	-8.04017
▁important	-8.0417
▁prepared	-8.04193
▁whole	-8.04497
▁worked	-8.04941
▁class	-8.0525
▁anyone	-8.05447
▁watching	-8.05451
▁mine	-8.05682
▁terrible	-8.06413
▁worried	-8.07064
▁far	-8.07365
▁part	-8.0759
▁broke	-8.08317
▁already	-8.08377
▁use	-8.08834
▁which	-8.09041
▁mean	-8.0954
▁lucky	-8.10093
▁3	-8.10415
▁child	-8.11057
n	-8.11205
▁idea	-8.11322
▁team	-8.11334
▁sleep	-8.11354
▁wrong	-8.12081
▁mother	-8.12428
▁past	-8.13083
▁making	-8.14162
▁dinner	-8.14512
▁thank	-8.14524
▁couple	-8.15165
▁usually	-8.15223
▁date	-8.15404
▁outside	-8.17015
▁experience	-8.17214
▁reason	-8.17678
▁trust	-8.18336
▁playing	-8.18503
▁both	-8.18663
▁luck	-8.18769
▁fine	-8.19211
▁front	-8.19559
▁promotion	-8.19864
▁tough	-8.19913
▁ok	-8.19935
▁hurt	-8.20779
▁gets	-8.20885
▁phone	-8.21022
t	-8.21102
▁bring	-8.22184
▁visit	-8.22414
▁pizza	-8.22578
▁boss	-8.23697
▁company	-8.24483
▁driving	-8.24873
▁surprised	-8.26549
▁change	-8.26705
▁happens	-8.26711
▁ended	-8.2686
▁exam	-8.27222
▁seeing	-8.27488
▁gone	-8.2816
▁surprise	-8.2833
▁drive	-8.28424
▁dogs	-8.28722
▁crazy	-8.28849
▁10	-8.28921
▁coworker	-8.29676
▁imagine	-8.29974
▁talking	-8.30475
▁forgot	-8.30485
▁town	-8.31293
▁clean	-8.31497
▁worst	-8.31731
▁either	-8.31737
▁tonight	-8.31737
▁5	-8.3181
▁deal	-8.31886
▁situation	-8.32167
▁lately	-8.32246
▁neighbor	-8.33017
▁ran	-8.33021
er	-8.33305
▁needed	-8.33549
▁angry	-8.3384
▁television	-8.34252
▁shocked	-8.34738
▁anymore	-8.35128
▁check	-8.35297
▁paid	-8.35561
▁especially	-8.35562
▁boyfriend	-8.35592
▁ask	-8.35639
▁sound	-8.36225
▁walking	-8.36628
▁break	-8.3663
▁fast	-8.37287
▁stop	-8.37784
each	-8.37813
▁true	-8.37918
▁called	-8.38101
▁mind	-8.3822
▁real	-8.38963
▁may	-8.40456
▁children	-8.40907
▁during	-8.40907
▁often	-8.40919
▁huge	-8.4183
▁door	-8.42126
▁different	-8.42211
▁worth	-8.42232
▁brought	-8.42289
▁sweet	-8.42292
▁agree	-8.42636
▁hoping	-8.42765
▁room	-8.4279
▁young	-8.42799
▁restaurant	-8.4281
▁hours	-8.43413
▁meet	-8.43523
▁confident	-8.43692
▁football	-8.44163
▁childhood	-8.44637
▁pet	-8.44782
▁neighbors	-8.46041
▁games	-8.46064
▁4	-8.46418
▁special	-8.46606
▁married	-8.47041
▁eating	-8.47983
▁future	-8.48511
▁water	-8.48527
▁goes	-8.4872
▁road	-8.49084
▁season	-8.49283
▁meeting	-8.49338
▁thankful	-8.49434
▁wonderful	-8.49505
▁plan	-8.49815
▁run	-8.50027
▁starting	-8.506
▁relationship	-8.50607
▁pass	-8.51004
▁feels	-8.52967
▁stole	-8.53541
▁turned	-8.53795
▁asked	-8.5387
▁city	-8.54099
▁movies	-8.54305
▁walk	-8.54754
▁gift	-8.55023
▁beach	-8.55164
▁doctor	-8.55274
▁free	-8.55304
▁un	-8.5548
▁easy	-8.55676
▁learn	-8.55723
▁spend	-8.5597
▁watched	-8.56238
▁moment	-8.56346
▁park	-8.56928
▁lose	-8.57262
▁worse	-8.5728
▁news	-8.57374
▁loved	-8.57528
▁moving	-8.57821
▁god	-8.57824
▁later	-8.57853
▁gross	-8.57931
▁thanks	-8.58433
▁fell	-8.5891
▁heart	-8.58935
▁grade	-8.59045
▁full	-8.59122
r	-8.59127
▁lonely	-8.59463
▁type	-8.59466
▁final	-8.59533
▁expecting	-8.59611
▁cut	-8.61107
▁christmas	-8.61127
th	-8.61148
▁looked	-8.61227
▁caught	-8.62253
▁supposed	-8.62299
▁cake	-8.62411
▁seem	-8.62718
▁met	-8.63016
▁awful	-8.63443
▁extra	-8.64546
▁turn	-8.64828
al	-8.64957
▁fall	-8.65648
▁difficult	-8.65704
▁bed	-8.66237
▁near	-8.66299
▁raise	-8.66342
▁positive	-8.6635
▁exciting	-8.66894
▁apartment	-8.67072
▁early	-8.67495
▁comes	-8.6768
▁card	-8.68005
▁hot	-8.68057
▁jealous	-8.68085
▁studied	-8.68688
▁ex	-8.68904
▁father	-8.69106
▁horrible	-8.69294
▁kept	-8.69295
▁totally	-8.69305
▁online	-8.69342
▁20	-8.6978
▁sucks	-8.69981
▁worry	-8.70275
▁aw	-8.70852
▁ones	-8.71005
▁living	-8.71758
▁grandmother	-8.72602
▁ordered	-8.72623
i	-8.72647
▁lots	-8.7291
▁plans	-8.73511
▁shopping	-8.73644
▁country	-8.73645
▁pick	-8.73729
▁walked	-8.7394
▁ride	-8.74221
▁remind	-8.74245
▁busy	-8.74304
▁studying	-8.74482
▁side	-8.74508
▁name	-8.74838
▁order	-8.74898
▁accident	-8.75132
▁partner	-8.75153
▁forever	-8.75663
▁d	-8.75831
▁point	-8.76025
▁safe	-8.76143
▁spent	-8.76215
▁younger	-8.76903
▁takes	-8.77166
▁lunch	-8.7751
▁afford	-8.77516
▁music	-8.77526
▁expensive	-8.77526
▁puppy	-8.77528
▁mess	-8.77541
▁under	-8.77723
▁others	-8.78019
▁police	-8.78176
▁weather	-8.78189
▁threw	-8.78189
▁math	-8.78224
▁boy	-8.7846
▁trouble	-8.78571
▁planning	-8.78857
▁business	-8.78857
▁chance	-8.79122
▁semester	-8.79527
▁small	-8.80177
▁instead	-8.80202
est	-8.80382
▁luckily	-8.80883
▁ticket	-8.8117
▁fan	-8.81864
es	-8.82097
▁lottery	-8.82257
▁gotten	-8.82263
▁annoying	-8.82293
▁head	-8.82786
▁smart	-8.82906
▁paying	-8.82987
▁played	-8.83074
▁open	-8.83454
▁helped	-8.83545
▁graduated	-8.8371
▁problem	-8.83957
▁three	-8.84355
▁works	-8.84422
▁age	-8.85233
▁concert	-8.85356
▁weight	-8.85369
▁video	-8.85376
▁rain	-8.85599
▁older	-8.86016
▁yard	-8.86503
▁funny	-8.86513
▁learned	-8.86833
▁save	-8.87095
▁behind	-8.87223
▁coffee	-8.87223
▁exactly	-8.87232
▁entire	-8.87869
▁area	-8.88132
▁stand	-8.88243
▁law	-8.8825
▁throw	-8.88412
▁weird	-8.88687
▁face	-8.88898
▁truck	-8.8894
▁forget	-8.88942
▁course	-8.89017
▁study	-8.89939
▁ill	-8.89978
▁embarrassed	-8.90189
▁dream	-8.90256
▁book	-8.90281
▁girls	-8.90406
st	-8.90491
▁read	-8.90616
▁beautiful	-8.90843
▁decide	-8.90852
▁looks	-8.90855
▁dark	-8.90925
▁planned	-8.9093
▁cute	-8.90967
▁catch	-8.91157
▁state	-8.91264
▁grow	-8.91392
▁coworkers	-8.91661
▁ashamed	-8.91685
▁bunch	-8.91685
▁born	-8.91685
▁fix	-8.91929
▁rest	-8.92258
▁manager	-8.92541
▁cause	-8.93032
▁pants	-8.94024
▁results	-8.94121
▁cheated	-8.94161
▁case	-8.9436
w	-8.94438
▁set	-8.94771
▁insurance	-8.94773
▁congratulations	-8.94774
▁pictures	-8.94947
▁hang	-8.95351
▁health	-8.95511
▁anxious	-8.95561
▁grandma	-8.95562
▁lied	-8.95631
▁inside	-8.95747
▁keeps	-8.96026
▁needs	-8.9615
▁running	-8.96356
▁poop	-8.96551
▁appreciate	-8.97048
▁neighborhood	-8.97155
▁single	-8.97155
▁guilty	-8.97162
▁taken	-8.9746
▁project	-8.97528
▁second	-8.97542
▁grateful	-8.97961
▁unfortunately	-8.97987
▁healthy	-8.98015
ting	-8.98098
▁street	-8.9836
▁half	-8.98778
▁accidentally	-8.98778
▁less	-8.98846
▁tickets	-8.99248
▁support	-8.9972
▁storm	-8.99756
▁ice	-8.99953
a	-9.00225
▁drink	-9.00614
▁wedding	-9.00815
▁office	-9.01169
in	-9.01185
▁finished	-9.01414
▁animals	-9.01579
k	-9.01849
▁bar	-9.01959
▁cancer	-9.02094
▁woke	-9.02095
▁pain	-9.02158
▁daughters	-9.02616
▁across	-9.02941
▁rough	-9.02941
▁dead	-9.02942
▁received	-9.02984
▁diet	-9.03223
▁classes	-9.03836
▁expect	-9.0417
▁turns	-9.04383
▁6	-9.04657
▁envious	-9.04658
▁sitting	-9.04668
▁credit	-9.05527
▁leaving	-9.05527
▁position	-9.05918
▁trash	-9.06126
▁everyday	-9.06409
▁aunt	-9.06435
▁along	-9.06543
▁local	-9.08102
▁traffic	-9.08182
▁embarrassing	-9.08198
▁impressed	-9.08214
▁missed	-9.08519
▁nephew	-9.08675
▁middle	-9.09992
▁clothes	-9.09993
▁completely	-9.10019
▁8	-9.10084
▁wonder	-9.10192
▁minutes	-9.10321
m	-9.10411
▁line	-9.10531
▁fair	-9.10772
▁grocery	-9.1091
▁gym	-9.1091
▁15	-9.10912
▁hospital	-9.11044
▁wants	-9.11402
▁anyway	-9.11448
▁lived	-9.11464
▁applied	-9.11837
▁growing	-9.12127
▁missing	-9.12137
▁cats	-9.12234
▁window	-9.12364
▁loud	-9.12663
▁pregnant	-9.1277
▁interesting	-9.12843
▁knows	-9.13102
▁disappointed	-9.13715
▁quickly	-9.13749
▁relax	-9.14178
▁cup	-9.14675
▁tired	-9.14715
▁brand	-9.15628
▁1	-9.15954
▁hour	-9.16203
ta	-9.16425
▁sent	-9.16599
▁deserve	-9.17067
▁liked	-9.1713
▁meal	-9.17321
▁hey	-9.17361
▁faith	-9.17576
▁kitchen	-9.17579
▁borrow	-9.17579
▁dropped	-9.1758
▁losing	-9.17587
▁issues	-9.17872
▁careful	-9.18507
▁broken	-9.18671
▁kinda	-9.18687
▁failed	-9.18704
▁parking	-9.19009
▁hi	-9.19108
▁enjoyed	-9.19451
▁quiet	-9.19569
▁self	-9.19569
▁earlier	-9.19569
▁perfect	-9.19662
▁hair	-9.20135
▁helps	-9.20164
less	-9.20193
▁s	-9.20388
▁monday	-9.20579
▁realized	-9.20719
▁become	-9.21191
▁matter	-9.21196
▁animal	-9.21202
▁trump	-9.21597
▁easier	-9.21599
▁yep	-9.216
▁mail	-9.21605
▁freak	-9.21615
▁fight	-9.21949
▁seemed	-9.22045
▁band	-9.2223
▁realize	-9.22564
▁starts	-9.22608
▁wallet	-9.22631
▁honestly	-9.227
able	-9.22853
▁service	-9.23253
▁computer	-9.23261
▁sit	-9.23624
▁ha	-9.23639
▁friday	-9.23672
▁due	-9.23682
▁relaxing	-9.23933
▁cook	-9.24247
▁cleaning	-9.2427
coming	-9.24644
▁buddy	-9.24726
▁invited	-9.2478
o	-9.25105
▁100	-9.25607
▁cars	-9.25619
▁amount	-9.25789
▁frustrating	-9.25789
▁red	-9.25791
▁absolute	-9.25791
▁send	-9.25822
▁bills	-9.26107
▁drunk	-9.26408
▁cousin	-9.26473
▁top	-9.26482
▁helping	-9.2663
▁rat	-9.26757
▁camping	-9.26942
▁return	-9.27041
▁expected	-9.27173
▁parent	-9.273
▁count	-9.27468
▁problems	-9.27476
▁light	-9.27553
▁honest	-9.27822
▁church	-9.27951
▁woman	-9.27952
▁saying	-9.28186
▁figure	-9.28426
▁snake	-9.28648
▁soccer	-9.2905
▁eventually	-9.2905
▁story	-9.29052
▁stressful	-9.29053
▁30	-9.29056
▁photos	-9.29304
▁present	-9.2951
▁cost	-9.29724
▁saving	-9.29758
▁wear	-9.30039
▁strange	-9.3014
▁bathroom	-9.30161
▁step	-9.30208
▁bag	-9.30335
▁cream	-9.3081
▁teacher	-9.30904
▁tru	-9.30935
▁serious	-9.3121
▁nostalgic	-9.31284
▁giving	-9.31285
▁surgery	-9.31285
▁possible	-9.31285
▁terrified	-9.31298
▁cheat	-9.31538
▁beat	-9.31822
▁stress	-9.3193
▁manage	-9.32044
▁stuck	-9.32421
▁florida	-9.32421
▁lady	-9.32425
▁large	-9.3243
▁saved	-9.32594
▁die	-9.32712
▁sort	-9.32969
▁control	-9.33115
▁cruise	-9.3357
▁major	-9.3357
▁presentation	-9.33573
▁sign	-9.33577
▁celebrate	-9.33581
▁gas	-9.33591
▁thankfully	-9.33749
▁cheating	-9.33813
▁changed	-9.33885
▁fixed	-9.33945
▁asking	-9.34279
▁stepp	-9.34292
▁noise	-9.34359
▁hand	-9.3443
▁stayed	-9.34535
▁black	-9.34733
▁ugh	-9.34734
▁pool	-9.34737
▁somewhere	-9.34762
▁social	-9.34966
▁fear	-9.35496
▁power	-9.359
▁alright	-9.3591
▁spill	-9.35922
▁hold	-9.35942
▁noticed	-9.35981
▁shoes	-9.36221
▁longer	-9.36258
▁offer	-9.36494
▁degree	-9.36681
▁rent	-9.36804
▁decid	-9.37219
▁fly	-9.37622
▁mistake	-9.37867
▁bank	-9.37872
▁sunday	-9.37891
▁slow	-9.38205
▁awhile	-9.38305
▁rude	-9.38305
▁annoyed	-9.38369
▁training	-9.38478
▁word	-9.38729
▁stopped	-9.39529
▁re	-9.3957
▁choice	-9.40351
▁wanting	-9.40395
▁bonus	-9.40743
▁content	-9.40753
▁package	-9.4076
▁hopeful	-9.4078
▁ahead	-9.40915
▁brothers	-9.41354
▁strong	-9.41896
▁lives	-9.42272
▁graduate	-9.42726
▁cover	-9.42761
▁m	-9.42941
▁teach	-9.43014
▁afterwards	-9.43315
▁sense	-9.4337
▁fire	-9.44023
▁finish	-9.44067
▁winning	-9.44134
▁driver	-9.44218
▁disney	-9.44556
▁memory	-9.44557
▁candy	-9.44614
▁quit	-9.44914
▁fault	-9.45376
▁suppose	-9.45748
▁public	-9.45855
▁loss	-9.45875
▁touch	-9.4596
▁places	-9.46059
▁cooking	-9.4615
▁eyes	-9.46162
▁jump	-9.46485
▁consider	-9.46926
▁normal	-9.47098
▁exams	-9.47168
▁pulled	-9.47386
▁dollars	-9.4744
▁means	-9.47464
▁b	-9.47717
▁issue	-9.48022
▁bill	-9.48102
▁unexpected	-9.48431
▁buying	-9.48469
l	-9.48471
▁switch	-9.48505
▁dating	-9.48512
▁ground	-9.48512
▁everywhere	-9.48514
▁anywhere	-9.48516
▁smell	-9.48887
▁blame	-9.49293
▁fit	-9.49852
▁moms	-9.49857
▁bother	-9.50012
▁7	-9.50227
▁bus	-9.50265
▁loan	-9.5082
▁dress	-9.50948
▁share	-9.51122
▁speech	-9.5121
▁attention	-9.51252
▁whenever	-9.51325
▁accepted	-9.51374
▁returned	-9.5154
▁t	-9.5158
▁box	-9.51635
ies	-9.51758
▁group	-9.52208
▁pets	-9.52387
▁faithful	-9.52619
▁joy	-9.52632
▁pleased	-9.52694
▁alive	-9.52715
▁showed	-9.52959
▁drivers	-9.53057
▁treat	-9.53114
▁spending	-9.53241
▁gre	-9.53395
▁number	-9.5362
▁dang	-9.53998
▁furious	-9.54023
▁grandfather	-9.54023
▁emotional	-9.54086
ment	-9.54325
▁learning	-9.5466
it	-9.54917
▁secret	-9.5497
▁competition	-9.54997
▁death	-9.54998
▁chicken	-9.55026
▁roommate	-9.55047
▁scratch	-9.55152
▁peace	-9.55446
▁wa	-9.55901
▁o	-9.56
▁decision	-9.56495
▁staying	-9.5661
▁prepare	-9.56794
▁poor	-9.56831
▁flight	-9.56831
▁nintendo	-9.56901
▁contest	-9.56901
▁happening	-9.56905
▁whatever	-9.56986
▁putting	-9.57001
▁replace	-9.57116
▁jobs	-9.57224
▁reading	-9.57363
▁knowing	-9.57746
▁minute	-9.57842
▁c	-9.57851
▁report	-9.57895
▁system	-9.5794
ers	-9.5821
▁50	-9.58379
▁cold	-9.58384
▁himself	-9.58385
▁promised	-9.58419
▁certainly	-9.58443
▁fired	-9.58527
▁given	-9.58589
▁stressed	-9.58694
▁career	-9.58901
▁short	-9.59354
▁chocolate	-9.59423
▁travel	-9.59622
▁halloween	-9.59864
▁impressive	-9.59865
▁track	-9.59866
▁cried	-9.59875
or	-9.59884
▁offered	-9.60187
▁beer	-9.60275
▁checked	-9.60725
her	-9.60773
▁pull	-9.61133
▁certain	-9.61305
▁biggest	-9.61379
▁baseball	-9.6138
▁amazed	-9.61382
▁sports	-9.61596
▁meant	-9.61777
▁scare	-9.62412
▁handle	-9.62469
▁spot	-9.62483
▁star	-9.62611
▁speak	-9.62646
▁similar	-9.62918
▁stupid	-9.62918
▁internet	-9.62918
▁laptop	-9.62918
▁nasty	-9.62918
▁graduation	-9.62918
▁hungry	-9.62918
▁against	-9.63059
▁shame	-9.63083
▁co	-9.6313
an	-9.63177
▁goodness	-9.63209
▁score	-9.63392
▁feelings	-9.63606
▁debt	-9.64063
▁winter	-9.64064
▁sat	-9.64321
▁financial	-9.64406
▁blue	-9.64486
▁flying	-9.64792
▁badly	-9.64828
▁act	-9.64917
▁mostly	-9.65006
▁keeping	-9.65347
▁words	-9.65542
▁floor	-9.65627
▁piece	-9.65646
▁sons	-9.65658
▁bike	-9.65658
▁steal	-9.6583
▁marriage	-9.66067
▁blast	-9.66068
▁extremely	-9.66086
▁roller	-9.66086
▁reach	-9.66096
▁laugh	-9.66843
▁contact	-9.66947
▁kill	-9.67059
▁grades	-9.67247
▁doctors	-9.67281
▁garden	-9.67429
▁12	-9.67513
▁themselves	-9.6768
▁confidence	-9.67681
▁anniversary	-9.67681
▁babies	-9.67684
▁list	-9.67687
▁irritated	-9.67692
▁riding	-9.67886
▁killed	-9.67929
▁harder	-9.6831
▁cleaned	-9.68648
▁complain	-9.68776
▁avoid	-9.69059
▁anxiety	-9.6932
▁empty	-9.69322
▁foot	-9.69326
▁homeless	-9.69553
▁train	-9.6976
▁sisters	-9.70051
▁smash	-9.70473
▁niece	-9.70576
▁hurricane	-9.70576
▁lesson	-9.70593
▁shop	-9.7065
▁building	-9.70702
▁cry	-9.70758
▁loyal	-9.70984
▁supplies	-9.70986
▁horror	-9.70987
▁haunted	-9.71001
▁miles	-9.71138
▁ghost	-9.72015
▁eye	-9.72174
▁moments	-9.72249
▁appointment	-9.72249
▁attitude	-9.7226
▁pays	-9.72286
▁cheap	-9.72656
▁promoted	-9.7269
▁18	-9.72734
▁event	-9.72737
▁grown	-9.72762
▁fishing	-9.72916
▁using	-9.73024
▁40	-9.73055
c	-9.7344
▁listen	-9.73447
▁visiting	-9.73755
▁gives	-9.73917
▁bowl	-9.73985
▁al	-9.73987
▁photo	-9.74007
▁nerve	-9.74101
▁research	-9.74154
▁fish	-9.74174
▁process	-9.74405
▁indeed	-9.74406
▁doubt	-9.74406
▁university	-9.74407
▁sentimental	-9.74428
▁asleep	-9.74481
▁jumped	-9.74733
▁nerves	-9.74807
▁low	-9.74892
▁dent	-9.755
▁vet	-9.75712
▁hockey	-9.7616
▁uncle	-9.7616
▁four	-9.76161
▁wake	-9.76161
▁shower	-9.7618
▁pissed	-9.76181
▁disgusting	-9.76192
▁stolen	-9.76276
▁tend	-9.76293
te	-9.76556
▁opened	-9.76786
▁join	-9.77393
▁notice	-9.77493
▁picture	-9.7759
▁focus	-9.77691
▁n	-9.77802
up	-9.7788
▁between	-9.77946
▁several	-9.77947
▁decent	-9.77947
▁blood	-9.77948
▁tripped	-9.77961
▁lawn	-9.78037
▁license	-9.78123
▁fail	-9.78886
▁sell	-9.79043
▁dentist	-9.79333
▁pray	-9.7949
▁crush	-9.79594
▁court	-9.79763
▁taught	-9.79764
▁facebook	-9.79764
▁swimming	-9.7977
▁terrifying	-9.7977
▁barely	-9.79777
▁normally	-9.79869
▁crashed	-9.79967
on	-9.80099
▁items	-9.80138
▁toys	-9.80275
▁picked	-9.8048
▁cancel	-9.8062
▁trusted	-9.81012
▁sleeping	-9.81053
▁stick	-9.81107
▁lie	-9.81114
f	-9.81141
▁gifts	-9.81161
▁shelter	-9.81196
▁shot	-9.8121
▁practice	-9.81507
▁bummed	-9.81616
▁drove	-9.81616
▁dangerous	-9.81617
▁body	-9.81617
▁sun	-9.81618
▁feet	-9.81624
▁carry	-9.8171
▁ruined	-9.81799
▁continue	-9.8181
▁air	-9.82027
▁wearing	-9.82038
▁y	-9.8206
▁rid	-9.82394
▁books	-9.82606
▁p	-9.82738
▁rock	-9.83065
▁effort	-9.83068
▁student	-9.83102
▁rush	-9.83246
▁taste	-9.83414
▁deep	-9.83425
▁sandwich	-9.83487
▁fresh	-9.83502
▁easily	-9.83502
▁optimistic	-9.83502
▁stomach	-9.83502
▁opportunity	-9.83502
▁advice	-9.83503
▁particular	-9.83504
▁yelled	-9.8359
▁cooked	-9.83954
▁goal	-9.8397
▁attack	-9.84752
▁calm	-9.85144
▁satisfied	-9.85425
▁comfortable	-9.85433
▁approved	-9.85438
▁nope	-9.8546
▁cookies	-9.85606
▁alot	-9.85695
▁heat	-9.85742
▁ac	-9.85757
▁pe	-9.85969
▁lay	-9.86168
ion	-9.86746
▁toilet	-9.86909
▁pair	-9.86946
▁adult	-9.86979
▁tree	-9.8698
▁dollar	-9.8703
▁sometime	-9.87046
▁dude	-9.87158
▁war	-9.87161
▁bright	-9.87262
▁quick	-9.87285
▁current	-9.87312
▁fat	-9.87319
▁match	-9.87374
▁delicious	-9.87386
▁perhaps	-9.87386
▁plus	-9.87386
▁devastated	-9.87387
▁sold	-9.87443
ther	-9.87448
▁hide	-9.87465
▁towards	-9.87655
▁drinking	-9.87955
▁turning	-9.882
▁regret	-9.88522
▁damage	-9.88845
▁wreck	-9.88875
▁follow	-9.88897
▁boat	-9.88952
▁customer	-9.88981
▁paper	-9.88992
▁clear	-9.89309
▁apart	-9.89379
▁please	-9.89386
▁practicing	-9.89386
▁six	-9.89387
▁13	-9.89389
▁couch	-9.8939
▁herself	-9.89412
▁involved	-9.89415
▁tho	-9.89758
▁attend	-9.90081
▁performance	-9.90951
▁plane	-9.91106
▁grad	-9.91424
▁twice	-9.91427
▁rug	-9.91428
▁mcdonalds	-9.91428
▁bummer	-9.91428
▁distance	-9.91429
▁nobody	-9.9143
▁lake	-9.91444
▁packed	-9.91627
▁song	-9.91681
▁woods	-9.91704
▁crying	-9.91721
▁hanging	-9.92052
▁visited	-9.92775
▁honor	-9.92815
▁burger	-9.92881
▁level	-9.93094
▁spider	-9.93108
▁holiday	-9.9311
▁race	-9.93128
▁knock	-9.93262
▁warm	-9.93267
▁roll	-9.93374
▁push	-9.93402
▁receive	-9.93403
▁straight	-9.9351
▁saturday	-9.9351
▁basement	-9.93513
▁mall	-9.93516
▁boring	-9.93534
▁disgusted	-9.9355
▁fingers	-9.93633
▁laughed	-9.93834
▁holidays	-9.93912
▁oldest	-9.93937
▁tire	-9.94478
h	-9.94511
▁ball	-9.95067
▁fact	-9.9517
▁carpet	-9.95185
▁stranger	-9.95267
re	-9.95407
came	-9.95541
▁table	-9.95598
▁somebody	-9.95641
▁field	-9.95658
▁says	-9.95732
▁gosh	-9.95755
▁headed	-9.96406
▁hands	-9.96569
▁passing	-9.96655
▁ways	-9.97088
▁cards	-9.97092
▁drop	-9.97361
▁dump	-9.97384
▁ten	-9.97748
▁literally	-9.97812
▁nowadays	-9.97812
▁south	-9.97813
▁mouth	-9.97813
▁cash	-9.97814
out	-9.97844
▁destroyed	-9.97913
▁appreciated	-9.98114
▁skills	-9.98117
▁note	-9.98949
rank	-9.99046
ness	-9.99482
▁crash	-9.99532
us	-9.99542
▁land	-9.99566
▁shirt	-9.99596
▁spouse	-9.99602
▁tournament	-9.99617
▁human	-9.9962
▁success	-9.99906
▁tornado	-10.0002
▁relief	-10.0003
▁women	-10.0003
▁landlord	-10.0004
▁station	-10.0004
▁25	-10.0005
▁delivery	-10.0006
▁dumb	-10.0026
▁closet	-10.0028
▁noises	-10.0081
▁leg	-10.0127
▁kick	-10.0135
▁kitten	-10.0189
▁question	-10.019
▁bird	-10.019
▁enjoying	-10.0197
se	-10.0202
▁accept	-10.0205
▁unfortunate	-10.0223
▁groceries	-10.0231
▁refund	-10.0231
▁mood	-10.0231
▁spring	-10.0231
▁dirty	-10.0233
▁flowers	-10.0235
▁gun	-10.0256
▁following	-10.0258
▁stealing	-10.0265
▁yours	-10.0286
▁g	-10.0297
▁ho	-10.03
▁mistakes	-10.0307
▁steps	-10.0313
▁caring	-10.0324
ngest	-10.0351
▁dads	-10.037
en	-10.0384
▁waste	-10.0385
▁wifes	-10.0391
▁film	-10.0422
▁coaster	-10.0424
▁letter	-10.0425
though	-10.0453
▁general	-10.0456
▁exercise	-10.0463
▁lazy	-10.0463
▁creepy	-10.0465
▁feed	-10.0467
▁grandparents	-10.0468
▁randomly	-10.047
▁someday	-10.0479
▁art	-10.0484
▁deserved	-10.0489
▁speaking	-10.05
▁nights	-10.0579
▁r	-10.0622
▁club	-10.066
▁recipe	-10.066
▁result	-10.0662
▁ma	-10.0665
le	-10.0666
▁youtube	-10.0675
▁cross	-10.0677
▁space	-10.0685
▁senior	-10.0701
▁eagles	-10.0701
▁education	-10.0701
▁lebron	-10.0701
▁subject	-10.0701
▁science	-10.0701
▁pride	-10.0701
▁roof	-10.0702
▁till	-10.0702
▁key	-10.0703
▁atleast	-10.0705
▁suddenly	-10.0706
▁speeding	-10.0717
▁bros	-10.0719
▁advance	-10.0725
▁spiders	-10.0747
nd	-10.0771
▁trusting	-10.086
▁rescue	-10.0889
▁professional	-10.089
▁board	-10.0903
▁explain	-10.0919
▁blow	-10.0928
▁u	-10.0934
▁award	-10.0944
▁depressed	-10.0945
▁garbage	-10.0945
▁president	-10.0945
▁reunion	-10.0945
▁texas	-10.0945
▁white	-10.0945
▁milk	-10.0945
▁security	-10.0945
▁paycheck	-10.0945
▁five	-10.0946
▁ending	-10.0949
▁loose	-10.0951
▁helpful	-10.0951
▁filled	-10.0962
▁applying	-10.0969
▁holding	-10.0995
and	-10.1017
▁tip	-10.102
▁ace	-10.1045
▁nose	-10.1072
▁f	-10.109
▁talent	-10.1128
▁ruin	-10.1144
▁shock	-10.1147
▁behavior	-10.1152
▁nail	-10.1167
▁cherish	-10.1168
▁apply	-10.1177
▁complete	-10.1178
▁double	-10.1182
▁schedule	-10.1185
▁forgive	-10.1191
▁respect	-10.1194
▁keys	-10.1194
▁except	-10.1195
▁prefer	-10.1195
▁awkward	-10.1195
▁emergency	-10.1195
▁league	-10.1195
▁york	-10.1195
▁flat	-10.1195
▁tiny	-10.1196
▁history	-10.1196
▁backyard	-10.1197
▁somehow	-10.12
▁successful	-10.1202
▁however	-10.1204
▁closer	-10.1211
▁bugs	-10.122
▁canceled	-10.1229
▁simple	-10.1236
▁students	-10.1249
▁goals	-10.1249
▁tests	-10.1261
▁raining	-10.128
▁closed	-10.1285
▁ra	-10.1331
▁pack	-10.1344
▁calling	-10.1389
▁invite	-10.1396
▁schoolarship	-10.1408
▁amuse	-10.1423
▁ring	-10.1438
▁waited	-10.1441
▁relate	-10.1441
▁swim	-10.145
▁breakfast	-10.1452
▁english	-10.1452
▁fridge	-10.1452
▁plenty	-10.1452
▁therapy	-10.1452
▁lovingg	-10.1452
▁basketball	-10.1452
▁supervisor	-10.1452
▁90	-10.1452
▁frustrated	-10.1452
▁eaten	-10.1456
▁media	-10.1461
▁crossed	-10.1479
▁knocked	-10.1482
▁laughing	-10.149
▁w	-10.1554
▁ton	-10.1569
▁tooth	-10.1573
▁dreams	-10.1591
▁breaking	-10.1594
▁likes	-10.1614
▁chas	-10.1617
▁corner	-10.167
▁color	-10.1674
▁spray	-10.1688
▁random	-10.1707
▁write	-10.1712
▁specific	-10.1715
▁above	-10.1715
▁pleasant	-10.1715
▁garage	-10.1715
▁robbed	-10.1715
▁pokemon	-10.1715
▁gate	-10.1716
▁slipped	-10.1717
▁lovely	-10.1718
▁burned	-10.1728
▁none	-10.1729
▁hurts	-10.1733
▁interviews	-10.181
▁16	-10.1842
▁answer	-10.1893
▁divorce	-10.1974
▁apologize	-10.1978
▁dish	-10.1981
but	-10.1983
▁glass	-10.1984
▁alcohol	-10.1985
▁desk	-10.1985
▁energy	-10.1985
▁netflix	-10.1985
▁insane	-10.1985
▁vegas	-10.1985
▁style	-10.1985
▁information	-10.1987
▁cancelled	-10.1987
▁concerned	-10.1993
▁personal	-10.1998
▁seriously	-10.2003
▁pounds	-10.2007
▁listening	-10.2023
▁covered	-10.2039
ity	-10.206
▁lights	-10.2086
▁trick	-10.2217
▁accomplishment	-10.2219
▁sport	-10.2223
▁situations	-10.225
▁rare	-10.2256
▁confront	-10.2263
▁third	-10.2263
▁shape	-10.2263
▁wild	-10.2263
▁beyond	-10.2263
▁supportive	-10.2264
▁dishes	-10.2264
▁pretend	-10.2266
▁pumped	-10.2267
▁l	-10.2275
▁attic	-10.2275
▁farted	-10.2281
▁traveling	-10.2308
▁smelled	-10.2315
▁teaching	-10.2316
▁pre	-10.2386
p	-10.241
▁h	-10.2421
▁caus	-10.2461
▁skill	-10.248
▁dance	-10.2483
▁machine	-10.2495
▁vehicle	-10.2501
▁block	-10.2505
he	-10.2507
▁9	-10.251
▁progress	-10.2517
▁program	-10.2548
▁community	-10.2549
▁quality	-10.2549
▁stoked	-10.2549
▁department	-10.2549
▁swear	-10.2549
▁apparently	-10.2549
▁stage	-10.2549
▁ripped	-10.2549
▁million	-10.2549
▁disappointing	-10.2549
▁friendship	-10.2549
▁bigger	-10.255
▁grand	-10.2551
▁prize	-10.2556
▁allow	-10.2558
▁snacks	-10.2561
▁somewhat	-10.2561
▁practiced	-10.2565
▁rely	-10.2566
▁trained	-10.2592
▁relaxed	-10.2624
am	-10.2631
ish	-10.2654
▁build	-10.2768
▁repair	-10.2775
▁arrive	-10.2787
ous	-10.2792
▁patient	-10.2802
▁review	-10.2802
▁camera	-10.2803
▁wood	-10.2805
▁invest	-10.2816
▁stock	-10.2826
nt	-10.2833
▁afternoon	-10.2843
▁ocean	-10.2843
▁responsible	-10.2843
▁thanksgiving	-10.2843
▁jail	-10.2843
▁series	-10.2843
▁mario	-10.2843
▁basically	-10.2843
▁bedroom	-10.2843
▁shut	-10.2843
▁thrones	-10.2843
▁bread	-10.2847
▁nowhere	-10.2849
king	-10.2852
▁currently	-10.2854
▁financially	-10.2857
▁stinks	-10.2859
▁scored	-10.2864
▁til	-10.2889
▁coasters	-10.2894
▁paint	-10.2933
▁plant	-10.2939
▁throwing	-10.294
▁presents	-10.2951
▁wasted	-10.2981
▁drinks	-10.2988
▁worker	-10.2995
▁k	-10.305
▁interest	-10.3057
▁charge	-10.3091
▁screen	-10.3094
▁difference	-10.3098
▁struggle	-10.3102
▁conversation	-10.3104
▁odd	-10.3105
▁price	-10.3111
▁comfort	-10.3113
▁v	-10.3119
▁kiss	-10.312
at	-10.3129
▁owner	-10.3131
▁post	-10.3138
▁admit	-10.3145
▁calculus	-10.3146
▁purpose	-10.3146
▁struggling	-10.3146
▁happiness	-10.3146
▁madden	-10.3146
▁medic	-10.3146
▁lying	-10.3146
▁bucks	-10.3148
▁constantly	-10.3148
▁gold	-10.3148
▁cheer	-10.3149
ng	-10.3152
▁diagnose	-10.3153
▁blessed	-10.3153
▁uh	-10.3157
▁nap	-10.3188
▁200	-10.3212
▁depend	-10.3215
ve	-10.325
▁teachers	-10.3258
ful	-10.3302
▁soft	-10.3313
▁jerk	-10.3316
ary	-10.3336
▁hurting	-10.3344
g	-10.3346
▁mark	-10.3357
▁suck	-10.3374
▁shoe	-10.3378
▁alarm	-10.3383
ic	-10.3406
▁value	-10.3413
▁blessing	-10.3424
▁size	-10.3447
▁peaceful	-10.3451
▁discover	-10.3453
▁player	-10.3455
▁apprehensive	-10.3458
▁despi	-10.3458
▁stories	-10.3458
▁habit	-10.3458
▁preparing	-10.3459
▁physics	-10.3459
▁common	-10.3459
▁engaged	-10.346
▁happier	-10.346
▁management	-10.3461
▁held	-10.3464
▁awe	-10.3488
▁talented	-10.349
▁higher	-10.3493
▁albums	-10.3493
▁fighting	-10.3532
▁braves	-10.3568
▁snakes	-10.3575
ry	-10.3595
▁rides	-10.3663
▁recover	-10.3682
▁lock	-10.3693
▁earn	-10.3717
▁argument	-10.3728
▁advantage	-10.3736
▁drama	-10.3736
▁warning	-10.3739
you	-10.377
▁surprising	-10.3773
▁rode	-10.3776
▁america	-10.3777
▁heartbroken	-10.3781
▁overcome	-10.3781
▁volunteer	-10.3781
▁necklace	-10.3781
▁fantastic	-10.3781
▁fiance	-10.3781
▁grass	-10.3781
▁marry	-10.3781
▁mow	-10.3782
▁otherwise	-10.3782
▁anytime	-10.3784
▁heights	-10.3788
▁arrived	-10.3793
▁rewarding	-10.3795
▁emotions	-10.38
▁14	-10.3802
▁interested	-10.3808
▁reasons	-10.3815
▁likely	-10.3817
▁selling	-10.3825
▁remembered	-10.3861
▁bear	-10.387
▁tea	-10.3881
▁yo	-10.3914
▁guessing	-10.3915
▁sadly	-10.3936
▁ole	-10.3939
▁fle	-10.4009
▁crawl	-10.4014
▁market	-10.4036
▁camp	-10.4058
▁negative	-10.4067
▁steak	-10.4071
▁occasion	-10.4072
▁employee	-10.4073
▁member	-10.4074
▁judge	-10.4113
▁etc	-10.4114
▁europe	-10.4114
▁kindergarten	-10.4114
▁graduating	-10.4114
▁assume	-10.4114
▁uncomfortable	-10.4114
▁appreciative	-10.4114
▁built	-10.4114
▁dread	-10.4115
▁flies	-10.4115
▁fence	-10.4115
▁hotel	-10.4116
▁earth	-10.4116
▁injured	-10.4116
▁overall	-10.4118
▁bored	-10.4118
▁hired	-10.4125
▁unit	-10.4125
▁purchased	-10.4127
▁cops	-10.4141
▁painting	-10.4146
▁fed	-10.415
▁members	-10.4155
▁questions	-10.4174
▁girlfriends	-10.4192
▁experienced	-10.4216
▁cousins	-10.4241
▁friendly	-10.4251
▁weekends	-10.4253
▁falling	-10.4254
▁storms	-10.4281
▁donate	-10.4282
▁videos	-10.4307
▁hated	-10.4335
▁suit	-10.435
▁ends	-10.4357
▁thoughts	-10.4362
▁account	-10.4388
▁improve	-10.4396
▁record	-10.4406
▁promise	-10.4407
▁risk	-10.4408
▁breath	-10.4413
▁chat	-10.4414
▁horse	-10.4418
▁seat	-10.442
el	-10.4427
▁anticipat	-10.4428
▁payment	-10.443
▁accomplish	-10.4435
1	-10.4439
▁hire	-10.4451
▁80	-10.4453
▁birth	-10.4459
▁december	-10.4459
▁furniture	-10.4459
▁nurse	-10.4459
▁walmart	-10.4459
▁yikes	-10.4459
▁vase	-10.4459
▁hurry	-10.4459
▁changing	-10.446
▁stairs	-10.446
▁waitress	-10.4461
▁500	-10.4461
▁dying	-10.4461
▁printer	-10.4461
▁cable	-10.4462
▁cheese	-10.4462
▁rich	-10.4465
▁abused	-10.4465
▁thrilled	-10.4471
▁screaming	-10.4471
▁entered	-10.4472
▁delivered	-10.4478
▁adopted	-10.4481
▁bite	-10.4483
▁upon	-10.4531
▁kinds	-10.4537
▁raised	-10.4538
▁calls	-10.4556
▁11	-10.4557
▁19	-10.458
▁picking	-10.4592
▁boys	-10.4673
▁heal	-10.469
▁ta	-10.4695
▁st	-10.4706
▁whos	-10.473
▁perform	-10.4744
▁crime	-10.4773
▁album	-10.4776
▁app	-10.4788
▁teeth	-10.4789
▁spoil	-10.4791
▁bond	-10.4791
▁approach	-10.4792
▁husbands	-10.4795
▁de	-10.4802
▁sudden	-10.4809
▁gesture	-10.4816
▁guitar	-10.4816
▁opinion	-10.4816
▁hobby	-10.4816
▁porch	-10.4816
▁nature	-10.4816
▁purse	-10.4816
▁tinder	-10.4816
▁cashier	-10.4816
▁lord	-10.4816
▁giant	-10.4816
▁sugar	-10.4816
▁smile	-10.4816
▁france	-10.4816
▁nearby	-10.4816
▁guard	-10.4817
▁hawaii	-10.4826
▁finances	-10.4826
▁siblings	-10.4834
▁locked	-10.4844
sure	-10.4845
▁followed	-10.4861
▁praying	-10.4864
▁file	-10.4868
▁tricks	-10.4868
▁parts	-10.4898
▁opening	-10.4941
▁soul	-10.4948
▁evening	-10.5004
▁classic	-10.5022
ball	-10.5105
▁speed	-10.5123
cting	-10.5133
▁stray	-10.5134
▁green	-10.5141
▁begin	-10.5143
▁client	-10.5143
▁pot	-10.5145
▁direction	-10.5146
▁sale	-10.5152
▁fill	-10.5165
▁welcome	-10.5174
▁california	-10.5186
▁wrote	-10.5186
▁funeral	-10.5186
▁everybody	-10.5187
▁fancy	-10.5187
▁potty	-10.5187
▁granted	-10.5187
▁mexico	-10.5187
▁elderly	-10.5187
▁immediately	-10.5187
▁committed	-10.5188
▁painful	-10.5188
▁fries	-10.5188
▁convince	-10.5189
▁dam	-10.5189
▁baked	-10.5194
▁thoughtful	-10.5195
▁heck	-10.521
▁mower	-10.5211
▁phones	-10.5213
▁cared	-10.5222
▁workout	-10.5234
▁min	-10.5235
▁attacked	-10.5235
▁sea	-10.5253
▁pit	-10.5259
▁songs	-10.5261
▁bell	-10.5278
the	-10.5297
▁deserves	-10.5343
▁soup	-10.5375
▁whe	-10.5449
ma	-10.5465
▁dr	-10.5476
▁men	-10.5485
▁th	-10.5492
▁gain	-10.5497
▁lead	-10.5502
▁j	-10.5503
▁understanding	-10.5512
▁e	-10.5513
▁path	-10.5521
▁email	-10.5524
▁fri	-10.5526
▁cell	-10.5526
▁period	-10.5529
▁message	-10.553
▁mountain	-10.5531
▁relative	-10.5531
▁adopt	-10.5546
▁physical	-10.5564
▁drives	-10.557
▁voice	-10.5571
▁underwear	-10.5571
▁silly	-10.5571
▁excellent	-10.5571
▁role	-10.5571
▁medicine	-10.5571
▁laundry	-10.5571
▁september	-10.5571
▁huh	-10.5571
▁lakers	-10.5572
▁joyful	-10.5572
▁hiking	-10.5572
▁punch	-10.5573
▁incredible	-10.5575
▁abilities	-10.5577
▁protect	-10.5578
▁multipl	-10.558
▁pigs	-10.5586
▁related	-10.5589
▁rescued	-10.5589
▁county	-10.5591
▁upsetting	-10.5594
▁medica	-10.5607
▁drugs	-10.5608
▁actions	-10.5609
▁crushed	-10.5624
▁beside	-10.5637
▁achieve	-10.5661
▁bee	-10.5675
u	-10.5682
▁workers	-10.5697
▁parked	-10.5755
im	-10.5788
▁brave	-10.5829
ced	-10.5876
▁text	-10.5877
is	-10.5883
▁bug	-10.5916
▁excuse	-10.5926
▁casino	-10.5927
▁option	-10.5931
▁shooting	-10.5936
▁pee	-10.5945
▁blind	-10.5961
▁natural	-10.5963
▁regular	-10.5964
▁purchase	-10.5964
ied	-10.5966
▁incredibl	-10.5967
▁favor	-10.5969
side	-10.5971
▁economy	-10.5971
▁government	-10.5971
▁nursing	-10.5971
▁overseas	-10.5971
▁wracking	-10.5971
▁bottle	-10.5971
▁breed	-10.5971
▁certification	-10.5971
▁complex	-10.5971
▁daily	-10.5971
▁witness	-10.5971
▁cheesecake	-10.5971
▁highschool	-10.5972
▁nostalgia	-10.5972
▁version	-10.5972
▁eager	-10.5972
▁daycare	-10.5973
▁coach	-10.5973
▁obviously	-10.5973
▁fond	-10.5973
▁socks	-10.5974
▁expectations	-10.5974
▁relieved	-10.5975
▁lbs	-10.5976
▁dry	-10.5977
▁changes	-10.5977
▁leftovers	-10.5977
▁truth	-10.5977
▁tasted	-10.5996
▁accomplished	-10.6
▁perfectly	-10.6001
▁onto	-10.6004
▁fairly	-10.6004
▁birds	-10.6043
▁flu	-10.6059
▁lies	-10.6062
way	-10.607
▁leaves	-10.6095
00	-10.6143
▁battle	-10.6148
▁relationships	-10.6303
ted	-10.6321
▁crowd	-10.6322
▁buffet	-10.6335
▁snow	-10.6343
▁female	-10.6344
▁application	-10.6345
▁plate	-10.6346
▁drug	-10.6348
▁teenager	-10.6348
b	-10.6351
▁bump	-10.6355
▁action	-10.6356
▁mix	-10.6363
▁require	-10.638
▁fortunate	-10.638
▁corn	-10.6386
I	-10.6388
▁inconsiderate	-10.6388
▁irritating	-10.6388
▁parcel	-10.6388
▁society	-10.6388
▁writing	-10.6388
▁scold	-10.6388
▁journey	-10.6388
▁closing	-10.6388
▁junior	-10.6388
▁income	-10.6388
▁uneasy	-10.6388
▁property	-10.6388
▁envy	-10.6388
▁laid	-10.6388
▁unhappy	-10.6388
▁professor	-10.6388
▁trustworthy	-10.6388
▁grill	-10.6389
▁skydiving	-10.6389
▁homework	-10.6391
▁golf	-10.6391
▁motivated	-10.6395
▁row	-10.6395
▁nuts	-10.6396
▁spelling	-10.6397
▁grabb	-10.6398
▁owe	-10.6399
▁slowly	-10.6414
▁characters	-10.6423
▁total	-10.6424
▁sales	-10.6433
▁san	-10.6457
▁main	-10.6462
▁agreed	-10.6489
as	-10.6497
ge	-10.6504
▁21	-10.6532
ty	-10.6539
rs	-10.6555
▁fights	-10.6556
▁escape	-10.662
▁fart	-10.6633
▁dealing	-10.6635
▁pen	-10.6644
▁wash	-10.6652
ive	-10.667
do	-10.6685
▁plays	-10.6737
ce	-10.674
▁handl	-10.6757
▁lotto	-10.6761
▁bomb	-10.6777
▁sight	-10.6777
▁salad	-10.6777
▁taco	-10.6779
▁wall	-10.6782
▁mile	-10.6783
▁wishing	-10.6783
▁hole	-10.6785
▁succeed	-10.679
▁boyfriends	-10.6791
▁root	-10.6794
▁litter	-10.6794
▁load	-10.6795
▁affect	-10.6796
ps	-10.6805
▁recent	-10.6809
▁tall	-10.682
▁babysit	-10.6822
▁february	-10.6823
▁loneliness	-10.6823
▁motorcycle	-10.6823
▁smoking	-10.6823
▁tennis	-10.6823
▁vibes	-10.6823
▁opposite	-10.6823
▁available	-10.6823
▁beginning	-10.6823
▁neat	-10.6823
▁lane	-10.6823
▁material	-10.6823
▁restroom	-10.6823
▁qualified	-10.6823
▁korean	-10.6825
▁organized	-10.6825
▁boost	-10.6826
▁prove	-10.6827
▁american	-10.6827
▁wave	-10.6832
▁parties	-10.6833
▁understandable	-10.6838
▁refused	-10.6838
▁vomited	-10.684
▁donut	-10.6842
▁edge	-10.6851
▁replaced	-10.6856
▁toward	-10.6859
▁itself	-10.6864
▁shocking	-10.6865
▁hell	-10.6873
▁experiences	-10.6874
▁depends	-10.688
▁prices	-10.6881
▁cameras	-10.6883
▁pro	-10.6888
▁killing	-10.6889
▁colors	-10.689
ar	-10.6899
▁considering	-10.6904
▁continues	-10.692
ance	-10.6937
▁meat	-10.6945
▁numbers	-10.6951
▁nicer	-10.6953
▁prank	-10.6977
▁heading	-10.6978
et	-10.6985
▁matters	-10.7
me	-10.7028
em	-10.7058
ll	-10.7084
▁chances	-10.7094
▁accidents	-10.7105
▁usa	-10.7114
▁bu	-10.7137
▁wet	-10.7163
▁schools	-10.7184
▁trips	-10.7215
▁form	-10.7226
▁annoy	-10.7228
▁airplane	-10.7232
▁clown	-10.7235
▁adventure	-10.7235
▁joke	-10.7235
▁soda	-10.7237
▁cookie	-10.7238
that	-10.7239
ant	-10.7245
▁deliver	-10.7247
▁budget	-10.7248
▁mention	-10.7251
▁croatia	-10.7261
▁wise	-10.7268
llowed	-10.7268
▁spoke	-10.7274
▁17	-10.7277
▁chemistry	-10.7277
▁disease	-10.7277
▁heavy	-10.7277
▁hundred	-10.7277
▁terribly	-10.7277
▁thousand	-10.7277
▁thursday	-10.7277
▁unknown	-10.7277
▁vacuum	-10.7277
▁motivation	-10.7277
▁remain	-10.7277
▁previous	-10.7277
▁families	-10.7277
▁uber	-10.7277
▁tight	-10.7277
▁haircut	-10.7277
▁pregnancy	-10.7277
▁attached	-10.7278
▁responsibility	-10.7278
▁properly	-10.7279
▁choose	-10.728
▁shining	-10.728
▁driveway	-10.728
▁zoo	-10.7281
▁shy	-10.7281
▁split	-10.7281
▁army	-10.7281
▁compare	-10.7284
▁barking	-10.7294
▁monsters	-10.7297
▁careless	-10.7302
▁charged	-10.7302
▁unexpectedly	-10.7303
▁eggs	-10.7303
▁sucked	-10.7314
▁mountains	-10.7325
▁landed	-10.7329
▁sooner	-10.735
▁treated	-10.736
▁pan	-10.7362
ouch	-10.7384
lent	-10.7394
▁wondering	-10.74
▁catching	-10.7427
▁bags	-10.7447
ny	-10.7469
▁hu	-10.7489
▁laws	-10.7536
▁pile	-10.7566
▁cow	-10.7587
▁hug	-10.759
▁finals	-10.7624
▁vacations	-10.7636
age	-10.7642
▁panic	-10.7644
▁lend	-10.7695
▁response	-10.7706
▁model	-10.7707
▁brain	-10.7708
▁shake	-10.7709
▁turtle	-10.7709
▁challenge	-10.7712
▁passion	-10.7713
▁character	-10.7713
▁harm	-10.7724
▁search	-10.7729
▁provide	-10.7739
▁smoke	-10.7741
▁usual	-10.7747
▁dirt	-10.7748
▁rob	-10.7751
▁oil	-10.7753
▁popular	-10.7753
▁ridiculous	-10.7753
▁sushi	-10.7753
▁precious	-10.7753
▁request	-10.7753
▁curious	-10.7753
▁info	-10.7753
▁binge	-10.7753
▁puppies	-10.7753
▁technology	-10.7753
▁react	-10.7753
▁anybody	-10.7754
▁gpa	-10.7754
▁engineering	-10.7754
▁national	-10.7754
▁addiction	-10.7754
▁console	-10.7754
▁considerate	-10.7754
▁miserable	-10.7754
▁torn	-10.7754
▁express	-10.7754
▁circus	-10.7754
▁60	-10.7755
▁fool	-10.7755
▁frightened	-10.7756
▁hike	-10.7757
▁300	-10.7757
▁cope	-10.7757
▁center	-10.7761
▁electric	-10.7764
▁flags	-10.7765
▁ditched	-10.7765
▁twins	-10.777
▁hunting	-10.777
▁personally	-10.7771
▁onions	-10.7776
▁masters	-10.7776
▁singing	-10.7776
▁farm	-10.778
▁texting	-10.7782
▁diapers	-10.779
▁la	-10.7801
▁kicked	-10.7807
▁safely	-10.781
▁chill	-10.7825
▁answers	-10.7826
▁wind	-10.7882
▁decisions	-10.789
▁favorites	-10.7891
▁roommates	-10.7892
▁secrets	-10.7892
ation	-10.7898
▁foods	-10.7916
blew	-10.7919
▁tour	-10.793
▁ear	-10.7966
gged	-10.7967
ri	-10.7989
▁per	-10.7995
▁ages	-10.8036
ch	-10.8102
▁parks	-10.8127
rd	-10.8172
▁limit	-10.8183
▁burn	-10.82
▁rabbit	-10.8208
▁spirit	-10.8208
▁poo	-10.8209
▁shift	-10.8212
▁rollercoaster	-10.8212
▁pound	-10.8214
▁pop	-10.8215
▁lift	-10.8231
▁sky	-10.8235
▁ignore	-10.8242
▁chose	-10.825
▁coast	-10.825
▁sub	-10.8252
▁mexic	-10.8252
▁activities	-10.8253
▁bottom	-10.8253
▁clue	-10.8253
▁colorado	-10.8253
▁gambling	-10.8253
▁hilarious	-10.8253
▁opportunities	-10.8253
▁shady	-10.8253
▁supermarket	-10.8253
▁tuesday	-10.8253
▁written	-10.8253
▁goldfish	-10.8253
▁airport	-10.8253
▁google	-10.8253
▁yoga	-10.8253
▁ease	-10.8253
▁attractive	-10.8253
▁shaking	-10.8253
▁paperwork	-10.8253
▁productive	-10.8253
▁theater	-10.8254
▁travelling	-10.8254
▁balance	-10.8254
▁taxes	-10.8255
▁round	-10.8255
▁35	-10.8256
▁understood	-10.8256
▁deer	-10.8257
▁darn	-10.8257
▁chores	-10.8261
▁ability	-10.8261
▁survived	-10.8265
▁highway	-10.8267
▁apologized	-10.8274
▁damaged	-10.8281
▁reschedule	-10.8288
▁refuse	-10.8293
▁options	-10.8305
▁happi	-10.8306
ter	-10.831
ro	-10.8312
ne	-10.8319
▁wine	-10.8325
▁sing	-10.8357
▁customers	-10.8357
4	-10.8374
▁lessons	-10.8379
▁events	-10.8382
x	-10.8388
▁scares	-10.839
▁treats	-10.8402
▁las	-10.8408
▁di	-10.8429
ped	-10.8471
▁windows	-10.8478
to	-10.8494
▁da	-10.8526
▁22	-10.8597
▁talks	-10.8598
▁tear	-10.8602
sh	-10.8606
▁wi	-10.8612
▁cop	-10.8669
▁jo	-10.8677
▁crap	-10.8679
▁mo	-10.8719
▁register	-10.8727
▁skin	-10.8728
▁yell	-10.8731
▁disaster	-10.8732
▁marathon	-10.8732
▁pocket	-10.8732
▁achievement	-10.8733
▁mechanic	-10.8734
▁knee	-10.8738
▁election	-10.8738
▁diaper	-10.8739
▁task	-10.8739
▁magic	-10.8752
▁destroy	-10.8755
▁lower	-10.8758
▁design	-10.8764
▁bake	-10.8766
▁spit	-10.8769
waiting	-10.877
▁intense	-10.877
▁release	-10.8772
▁exact	-10.8772
▁direct	-10.8776
▁auto	-10.8778
▁engine	-10.8779
▁basic	-10.878
▁dmv	-10.878
▁england	-10.878
▁impossible	-10.878
▁ourselves	-10.878
▁private	-10.878
▁retail	-10.878
▁spanish	-10.878
▁valuable	-10.878
▁average	-10.878
▁celebrating	-10.878
▁discipline	-10.878
▁chair	-10.878
▁potential	-10.878
▁skating	-10.878
▁overwhelming	-10.878
▁pressure	-10.878
▁possibly	-10.878
▁kitty	-10.878
▁contract	-10.878
fc	-10.878
▁example	-10.878
▁grandpa	-10.878
▁assuming	-10.878
▁freshman	-10.878
▁dear	-10.878
▁squid	-10.8781
▁actual	-10.8781
responsibilities	-10.8781
▁safety	-10.8782
▁frequently	-10.8782
▁familiar	-10.8784
▁ticked	-10.8784
▁tax	-10.8785
▁bro	-10.8785
▁mainly	-10.8789
ver	-10.879
▁alley	-10.879
▁sink	-10.8791
int	-10.8792
▁king	-10.8795
▁bosses	-10.8801
▁rewarded	-10.8804
▁benefits	-10.8807
▁faster	-10.881
▁mixed	-10.8812
▁posted	-10.8824
▁packing	-10.883
▁relatives	-10.8836
▁payments	-10.8844
▁employees	-10.8845
▁players	-10.8868
▁legs	-10.8877
▁teams	-10.8882
▁papers	-10.8889
▁adults	-10.8891
▁shorts	-10.8927
▁cares	-10.8933
▁debi	-10.8938
▁groups	-10.8938
▁wor	-10.8951
▁dis	-10.8959
▁savings	-10.8979
▁tons	-10.8981
be	-10.8983
z	-10.8996
▁item	-10.9037
▁wasp	-10.9043
▁add	-10.9077
▁names	-10.9127
▁meaning	-10.9179
ian	-10.9187
ama	-10.9189
ally	-10.9193
▁reward	-10.9241
▁par	-10.926
▁correct	-10.9268
▁respond	-10.9282
▁flood	-10.9285
▁tesla	-10.9288
▁teen	-10.9291
▁employer	-10.9293
▁politic	-10.9294
▁episode	-10.9294
ate	-10.9306
▁climb	-10.9311
▁mis	-10.9318
▁retire	-10.9323
▁belong	-10.9329
▁tragic	-10.9335
▁cruel	-10.9335
▁repeat	-10.9335
▁counselor	-10.9335
▁environment	-10.9335
▁favourite	-10.9335
▁impact	-10.9335
▁november	-10.9335
▁oven	-10.9335
▁sidewalk	-10.9335
▁chinese	-10.9335
▁mouse	-10.9335
▁repay	-10.9335
▁incident	-10.9335
▁thru	-10.9336
▁labor	-10.9336
▁livid	-10.9336
▁canada	-10.9336
▁jacket	-10.9336
▁retirement	-10.9336
▁anticipation	-10.9336
▁july	-10.9337
▁stubb	-10.9338
▁hall	-10.9338
▁spoken	-10.9339
▁simpler	-10.9341
▁rarely	-10.935
▁scheduled	-10.9361
▁yelling	-10.9361
▁handy	-10.9362
▁thrown	-10.9362
▁lifting	-10.9362
▁washing	-10.9367
slept	-10.9374
▁product	-10.9375
▁nest	-10.938
▁skipp	-10.939
▁officer	-10.9396
▁guilt	-10.9398
▁severe	-10.9405
▁wrecked	-10.9407
▁sa	-10.9419
▁listened	-10.9419
▁stressing	-10.9458
▁shots	-10.9464
▁chase	-10.9487
▁stores	-10.9487
▁fixing	-10.9518
▁sorts	-10.9539
▁cart	-10.9546
▁hat	-10.9587
▁rate	-10.9593
nce	-10.9608
▁gifted	-10.9611
▁states	-10.9646
▁en	-10.9649
iest	-10.9652
ur	-10.9697
id	-10.9714
ut	-10.9783
ad	-10.9786
ese	-10.9809
ical	-10.9817
▁mar	-10.9839
ated	-10.9861
▁fo	-10.9872
▁dislike	-10.9876
▁firm	-10.9877
▁tshirt	-10.9878
▁breaks	-10.9878
▁chef	-10.9881
▁nightmare	-10.9883
▁apple	-10.9884
▁punish	-10.9897
▁awake	-10.9899
▁rais	-10.9899
▁grab	-10.9913
▁survive	-10.9915
▁whil	-10.9919
▁admire	-10.992
▁courage	-10.9923
▁suggest	-10.9923
▁adorable	-10.9923
▁confused	-10.9923
▁ferrari	-10.9923
▁hometown	-10.9923
▁influence	-10.9923
▁innocent	-10.9923
▁instructor	-10.9923
▁mortgage	-10.9923
▁porsche	-10.9923
▁climate	-10.9923
▁evil	-10.9923
▁radio	-10.9923
▁pics	-10.9923
▁jeans	-10.9923
▁mug	-10.9924
▁significant	-10.9924
nual	-10.9924
▁reliable	-10.9924
▁gig	-10.9924
▁disneyland	-10.9924
▁charity	-10.9924
▁hello	-10.9925
▁rear	-10.9925
▁argue	-10.9926
▁replacement	-10.9926
▁asap	-10.9927
▁resolved	-10.9927
▁reality	-10.9928
▁mid	-10.9929
▁belongings	-10.993
▁pink	-10.993
▁fortunately	-10.9934
▁arm	-10.9934
▁ignored	-10.9936
▁folks	-10.9937
▁trailer	-10.9941
▁wings	-10.9941
▁val	-10.9944
▁screamed	-10.9946
▁junk	-10.9952
▁tears	-10.997
▁repaired	-10.9975
▁male	-10.9985
what	-10.9998
8	-11.0001
▁interests	-11.0005
▁failing	-11.0005
▁patients	-11.0007
▁reviews	-11.0007
▁joined	-11.0009
▁couples	-11.0013
▁dressed	-11.0035
▁spare	-11.0037
▁finishing	-11.0039
▁strangers	-11.0041
▁bath	-11.0048
▁trees	-11.0049
▁bench	-11.0063
so	-11.0081
▁loans	-11.0105
▁houses	-11.0105
▁choices	-11.0125
▁er	-11.0127
▁booked	-11.013
▁stays	-11.015
▁45	-11.0154
▁worrying	-11.0166
▁po	-11.0175
▁lines	-11.0195
▁nephews	-11.0201
either	-11.0206
capable	-11.0264
▁vote	-11.0291
▁pa	-11.0293
▁grandmothers	-11.0324
pa	-11.04
▁bat	-11.0411
▁range	-11.043
▁ch	-11.045
▁condition	-11.0477
▁serve	-11.0486
▁owned	-11.0493
▁outcome	-11.0496
▁pat	-11.0497
▁doors	-11.0498
▁vomit	-11.0498
▁dumpster	-11.0501
▁strength	-11.0502
▁sauce	-11.0503
▁bachelor	-11.0505
▁generation	-11.0505
▁headache	-11.0506
▁channel	-11.0506
▁toddler	-11.0507
▁mate	-11.051
▁danc	-11.0518
▁recommend	-11.0519
▁reminder	-11.0521
▁suffer	-11.0524
▁rip	-11.0539
bowl	-11.0539
▁extreme	-11.0541
▁mental	-11.0542
▁encourage	-11.0548
▁abroad	-11.0548
▁allergic	-11.0548
▁august	-11.0548
▁bittersweet	-11.0548
▁cavs	-11.0548
▁chicago	-11.0548
▁companies	-11.0548
▁countries	-11.0548
▁downstairs	-11.0548
▁freedom	-11.0548
▁nfl	-11.0548
▁october	-11.0548
▁proposal	-11.0548
▁recital	-11.0548
▁solution	-11.0548
▁tattoo	-11.0548
▁wednesday	-11.0548
▁depressing	-11.0548
▁goodbye	-11.0548
▁japan	-11.0548
▁gaming	-11.0548
▁ramen	-11.0548
▁craving	-11.0548
▁generous	-11.0548
▁irresponsible	-11.0549
▁excitement	-11.0549
▁vegan	-11.0549
▁hubby	-11.0549
▁failure	-11.0549
▁forgotten	-11.0549
▁sex	-11.0549
▁sunny	-11.0549
▁baking	-11.0549
▁crappy	-11.0549
▁sharing	-11.055
▁rage	-11.055
▁worries	-11.055
▁handful	-11.055
▁husky	-11.055
▁chatting	-11.0551
▁expired	-11.0551
▁patch	-11.0551
▁cowboys	-11.0552
▁cage	-11.0553
▁rules	-11.0555
▁boxes	-11.0556
▁copy	-11.0558
▁regularly	-11.056
▁aliens	-11.0563
▁skiing	-11.0565
▁bully	-11.0565
▁mission	-11.0569
hen	-11.0569
▁generally	-11.0569
▁sweetest	-11.0569
▁salt	-11.0571
▁climbing	-11.0576
▁completed	-11.0582
▁totaled	-11.0587
▁teh	-11.059
▁nightmares	-11.0592
▁earned	-11.0599
▁loudly	-11.0601
▁makeup	-11.0605
donald	-11.0606
▁messy	-11.0615
▁marks	-11.0632
▁ideas	-11.0674
led	-11.0676
▁returning	-11.0694
▁supporting	-11.0741
▁butt	-11.0742
▁fathers	-11.0754
▁fi	-11.0773
▁becomes	-11.0809
▁elses	-11.0811
▁anyways	-11.0838
▁compete	-11.0861
ial	-11.0975
▁mortif	-11.0984
did	-11.1008
▁areas	-11.1012
she	-11.1023
▁compar	-11.1061
▁24	-11.1071
v	-11.1089
▁non	-11.1097
▁stuffed	-11.1104
ssed	-11.1124
▁emotion	-11.1144
▁foreign	-11.1147
▁hunt	-11.1152
▁scream	-11.1166
▁language	-11.1168
▁routine	-11.1168
▁heaven	-11.1168
▁enter	-11.1169
▁investment	-11.1169
▁companion	-11.117
▁slide	-11.1171
▁shark	-11.1173
▁term	-11.1173
▁duck	-11.1174
▁finger	-11.1175
▁treatment	-11.1176
▁impress	-11.1187
▁draw	-11.1188
▁settle	-11.1204
▁treasure	-11.1207
▁independent	-11.1207
▁teenage	-11.1213
▁balcony	-11.1215
▁championship	-11.1215
▁complicated	-11.1215
▁demand	-11.1215
▁dementia	-11.1215
▁elementary	-11.1215
▁patience	-11.1215
▁target	-11.1215
▁discuss	-11.1215
▁increase	-11.1215
▁preparation	-11.1215
▁storage	-11.1215
▁unique	-11.1215
▁seafood	-11.1215
▁spaghetti	-11.1215
▁raffle	-11.1215
▁karma	-11.1215
▁percent	-11.1215
▁smack	-11.1215
▁ladies	-11.1215
▁fake	-11.1215
▁lemon	-11.1215
▁claim	-11.1216
▁lightning	-11.1216
▁scene	-11.1216
▁irked	-11.1216
▁temper	-11.1216
▁blanket	-11.1216
▁biology	-11.1216
▁rice	-11.1216
▁draft	-11.1216
▁medication	-11.1216
▁isolated	-11.1216
they	-11.1216
man	-11.1216
▁cam	-11.1216
▁ingredients	-11.1217
▁ew	-11.1217
▁pc	-11.1217
▁arrested	-11.1218
▁determined	-11.1218
▁horn	-11.122
▁inspired	-11.122
▁illness	-11.122
▁workplace	-11.1222
▁chargers	-11.1223
▁proposed	-11.1224
▁cheaper	-11.1225
▁puked	-11.1225
▁lap	-11.1227
▁served	-11.1227
▁physically	-11.1228
▁cracked	-11.1235
▁sweating	-11.1236
▁suffering	-11.1241
▁hid	-11.1241
▁installed	-11.1243
▁beef	-11.1244
▁pasta	-11.1245
▁flooded	-11.1246
▁site	-11.1247
▁active	-11.1253
▁arms	-11.1261
▁tasks	-11.1268
▁shared	-11.1271
▁teenagers	-11.1282
▁iphone	-11.1295
▁com	-11.1311
▁cure	-11.1329
▁letters	-11.1336
▁fl	-11.1366
▁mu	-11.1369
ay	-11.1396
▁kit	-11.1402
▁bothers	-11.1438
ever	-11.1503
▁understands	-11.1523
5	-11.1547
▁fans	-11.1632
tion	-11.1687
▁23	-11.1711
▁sneak	-11.1785
▁thrill	-11.1793
▁interviewing	-11.18
▁pup	-11.1814
▁hopes	-11.1858
▁artist	-11.1877
▁breeze	-11.1882
▁knife	-11.1882
▁view	-11.1882
▁athletic	-11.1885
▁stink	-11.1886
▁realiz	-11.1889
▁setting	-11.1889
▁tail	-11.1889
▁collect	-11.1897
▁belt	-11.1902
▁drawing	-11.1908
▁bark	-11.1916
▁hype	-11.1916
▁puke	-11.1918
▁solve	-11.1918
▁passionate	-11.192
▁original	-11.1922
▁develop	-11.1924
▁korea	-11.1925
▁thunder	-11.1929
▁2018	-11.1929
▁addition	-11.1929
▁bahamas	-11.1929
▁burst	-11.1929
▁caribbean	-11.1929
▁dedication	-11.1929
▁evicted	-11.1929
▁exchange	-11.1929
▁exercising	-11.1929
▁keto	-11.1929
▁naked	-11.1929
▁reminiscing	-11.1929
▁swallow	-11.1929
▁universal	-11.1929
▁turkey	-11.1929
▁xbox	-11.1929
▁april	-11.1929
▁lonesome	-11.1929
▁hobbies	-11.1929
▁spread	-11.1929
▁preschool	-11.1929
▁starving	-11.1929
▁lawyer	-11.1929
▁neck	-11.193
▁reflect	-11.193
▁slight	-11.193
▁alternative	-11.193
▁occasionally	-11.193
▁evaluation	-11.193
▁reaction	-11.193
▁personality	-11.193
▁clock	-11.1931
▁mice	-11.1931
▁access	-11.1931
▁trapped	-11.1931
▁sadden	-11.1931
▁moon	-11.1932
▁clothing	-11.1932
▁homemade	-11.1932
▁rejected	-11.1932
▁homeschool	-11.1932
▁impression	-11.1933
▁frightening	-11.1934
▁headphones	-11.1934
▁egg	-11.1935
▁honk	-11.1935
▁italy	-11.1936
▁north	-11.1937
▁expenses	-11.1946
▁ches	-11.1947
▁released	-11.1947
▁macs	-11.1949
▁distracted	-11.1951
▁meds	-11.1953
▁se	-11.1957
▁clearly	-11.1957
▁comics	-11.1958
▁flow	-11.1964
mune	-11.1971
▁toddlers	-11.1977
▁daddy	-11.1977
▁tools	-11.198
▁includ	-11.1993
▁killer	-11.1996
▁bull	-11.2001
▁directions	-11.2011
▁blessings	-11.2026
▁creep	-11.2032
▁plants	-11.2032
▁focused	-11.2035
▁scarie	-11.2046
▁em	-11.2051
▁base	-11.2078
line	-11.2106
▁ghosts	-11.211
▁nieces	-11.2112
▁hurricanes	-11.2112
▁ps	-11.2122
▁lover	-11.213
ling	-11.2179
ent	-11.2183
▁holds	-11.2189
▁fears	-11.219
▁rained	-11.2195
▁gra	-11.2197
▁wins	-11.2208
▁computers	-11.2225
▁troubles	-11.225
▁nor	-11.2262
▁fa	-11.2284
▁sore	-11.2313
▁pace	-11.2322
rew	-11.2337
not	-11.234
ck	-11.2345
we	-11.2424
▁bo	-11.243
diving	-11.2437
my	-11.2463
▁lo	-11.2469
▁mum	-11.2476
▁pi	-11.2479
▁70	-11.2485
▁runs	-11.2554
▁sweat	-11.2566
▁hoped	-11.2593
▁prior	-11.261
▁celebration	-11.2646
▁hamster	-11.2646
▁festival	-11.2647
▁babysitter	-11.2647
▁yearbook	-11.2649
▁quarter	-11.265
▁jack	-11.2653
▁pie	-11.2653
▁discount	-11.2653
▁wound	-11.2654
▁brown	-11.2655
▁effect	-11.2657
▁benefit	-11.2658
▁transfer	-11.2658
▁sibling	-11.2658
▁musician	-11.2659
▁pizzas	-11.2662
▁wheel	-11.2664
▁stain	-11.2667
▁murder	-11.2672
▁reminisce	-11.2686
j	-11.2687
▁abuse	-11.2688
▁participate	-11.2694
▁romantic	-11.2698
▁antique	-11.2699
▁beforehand	-11.2699
▁brutal	-11.2699
▁burden	-11.2699
▁cereal	-11.2699
▁challenging	-11.2699
▁competitive	-11.2699
▁devestated	-11.2699
▁fantasy	-11.2699
▁industry	-11.2699
▁military	-11.2699
▁picnic	-11.2699
▁raccoon	-11.2699
▁starbucks	-11.2699
▁umbrella	-11.2699
▁dealership	-11.2699
▁heavily	-11.2699
▁internship	-11.2699
▁lifestyle	-11.2699
▁psychology	-11.2699
▁staff	-11.2699
▁rehab	-11.2699
▁cloud	-11.2699
▁duty	-11.2699
▁dedicate	-11.2699
▁organization	-11.2699
▁hassle	-11.2699
▁catfish	-11.2699
▁secure	-11.2699
▁sake	-11.2699
▁chain	-11.2699
▁ego	-11.2699
▁healthier	-11.2699
▁pharmacy	-11.2699
▁feedback	-11.2699
▁thai	-11.2699
▁lack	-11.27
▁golden	-11.27
▁potatoes	-11.27
▁culture	-11.27
▁starved	-11.27
▁improving	-11.27
▁protective	-11.27
▁warriors	-11.27
▁dried	-11.2701
▁thick	-11.2701
▁bout	-11.2702
▁instantly	-11.2703
▁34	-11.2703
▁worn	-11.2703
▁shipping	-11.2703
▁fulfilling	-11.2704
▁improvement	-11.2704
▁glasses	-11.2705
▁smoothly	-11.2706
▁mentally	-11.2708
▁anger	-11.271
▁robber	-11.2711
▁forgetting	-11.2712
▁stronger	-11.2715
ible	-11.2715
▁prevent	-11.2719
▁mosquitos	-11.272
gan	-11.2721
▁sticky	-11.2722
▁fur	-11.2722
▁hiding	-11.2728
▁route	-11.273
▁inches	-11.2731
▁classmates	-11.2733
▁fees	-11.2737
▁searching	-11.2739
▁secretly	-11.2741
▁aid	-11.2747
▁approaching	-11.2753
9	-11.2755
▁extend	-11.2761
▁recovered	-11.2762
▁rollercoasters	-11.2763
▁injury	-11.2768
▁jerks	-11.2802
▁ghosted	-11.2819
▁contacted	-11.2825
▁keeper	-11.2832
▁humans	-11.2847
▁rolls	-11.2856
▁ti	-11.2912
▁acts	-11.2916
▁smells	-11.2945
mon	-11.2946
▁si	-11.2959
▁aware	-11.2969
▁costs	-11.2998
▁bands	-11.3022
om	-11.3028
ley	-11.3032
ine	-11.3044
ome	-11.3072
▁vi	-11.3078
▁enjoys	-11.308
▁hero	-11.309
▁li	-11.3138
▁causes	-11.3151
▁courses	-11.3152
▁opens	-11.3178
▁din	-11.3238
▁con	-11.3264
ence	-11.3276
ned	-11.3289
▁beers	-11.3298
ie	-11.3326
▁bound	-11.3335
mma	-11.335
▁ship	-11.3387
ist	-11.3402
back	-11.3419
▁exist	-11.3423
▁restaurants	-11.3428
▁scrap	-11.3435
▁disappear	-11.3452
▁concern	-11.3465
▁stops	-11.3468
▁slip	-11.3469
▁fee	-11.3474
▁persons	-11.3475
ul	-11.3477
▁affair	-11.348
▁attempt	-11.348
▁title	-11.348
▁hung	-11.3482
▁singer	-11.3484
▁milestone	-11.3485
▁dorm	-11.3485
▁force	-11.3486
▁muscle	-11.3487
▁lung	-11.3487
▁tradition	-11.3488
▁candidate	-11.3489
▁standard	-11.349
▁lab	-11.3491
▁master	-11.3494
▁distract	-11.3498
▁crack	-11.3503
aw	-11.3508
▁te	-11.3511
▁brea	-11.3514
▁deals	-11.3516
▁scar	-11.3516
▁propose	-11.3521
▁motivate	-11.3523
▁unfair	-11.3523
▁smooth	-11.3524
stood	-11.3531
▁regard	-11.3531
▁aggravating	-11.3532
▁autopilot	-11.3532
▁barista	-11.3532
▁brush	-11.3532
▁chihuahua	-11.3532
▁defense	-11.3532
▁exotic	-11.3532
▁flavor	-11.3532
▁froze	-11.3532
▁heirloom	-11.3532
▁humiliated	-11.3532
▁iguana	-11.3532
▁mercedes	-11.3532
▁orlando	-11.3532
▁overcharge	-11.3532
▁polite	-11.3532
▁protein	-11.3532
▁salary	-11.3532
▁trophy	-11.3532
▁midnight	-11.3532
▁aggressive	-11.3532
▁french	-11.3532
▁infection	-11.3532
▁stroke	-11.3532
▁depression	-11.3532
▁rotten	-11.3532
▁plumber	-11.3532
▁leash	-11.3532
▁traumatic	-11.3532
▁unnecessary	-11.3532
▁address	-11.3532
▁feb	-11.3532
▁miracle	-11.3532
▁tech	-11.3532
▁source	-11.3532
▁steam	-11.3532
▁karate	-11.3532
▁sketchy	-11.3532
▁phase	-11.3532
▁mailbox	-11.3532
▁famous	-11.3532
▁eh	-11.3532
▁thou	-11.3532
▁throat	-11.3532
▁toppings	-11.3532
▁collection	-11.3533
▁specifically	-11.3533
▁battery	-11.3533
▁necessary	-11.3533
▁tasty	-11.3533
▁roaches	-11.3533
▁ipad	-11.3533
▁jar	-11.3533
▁subway	-11.3533
▁page	-11.3533
▁zipper	-11.3533
ts	-11.3534
▁typically	-11.3534
▁bucket	-11.3534
▁creatures	-11.3534
▁instructions	-11.3534
▁aggravated	-11.3534
▁payday	-11.3535
ug	-11.3535
▁fitness	-11.3535
▁shattered	-11.3535
▁comedy	-11.3535
▁roomate	-11.3535
▁household	-11.3536
▁inspiring	-11.3537
▁racking	-11.3537
▁lean	-11.3538
▁shaken	-11.3538
▁choked	-11.3538
▁tie	-11.3538
▁tuition	-11.3539
▁recall	-11.354
▁host	-11.3541
▁delayed	-11.3542
ware	-11.3543
▁vegetables	-11.3545
▁abandoned	-11.3546
▁surprises	-11.3548
▁kiddos	-11.3548
▁retired	-11.3549
▁thunderstorms	-11.3555
▁pitch	-11.3557
▁beaches	-11.3558
▁mini	-11.3559
▁behave	-11.356
▁sand	-11.3565
▁kindness	-11.3565
▁cutest	-11.3572
▁transferr	-11.3576
▁hip	-11.3579
▁pastor	-11.358
▁beans	-11.3581
▁button	-11.3584
▁leading	-11.3587
▁solo	-11.3587
▁intentional	-11.3591
▁spoiled	-11.3593
▁begging	-11.3597
▁challenges	-11.3606
ring	-11.3606
▁gal	-11.363
▁attending	-11.3637
▁butter	-11.364
▁wrecking	-11.364
▁ca	-11.3656
▁smashed	-11.3666
▁bears	-11.3667
▁tips	-11.3674
▁faced	-11.3675
ering	-11.3678
of	-11.3678
▁clubs	-11.3682
▁lice	-11.371
▁manag	-11.3718
▁gum	-11.3719
▁handed	-11.3727
▁guide	-11.3734
▁bikes	-11.376
um	-11.3777
▁tool	-11.3805
▁cleaner	-11.3824
▁banks	-11.3833
▁brit	-11.3871
vy	-11.3884
fully	-11.3897
▁tested	-11.3906
▁ol	-11.3931
land	-11.3947
▁sn	-11.3963
▁chip	-11.3967
▁explore	-11.3985
▁introduce	-11.4009
no	-11.4038
▁ri	-11.4039
▁sh	-11.4125
rry	-11.4195
time	-11.4283
▁comp	-11.4284
▁prison	-11.4329
▁dip	-11.4334
▁ski	-11.4353
ize	-11.4365
▁theme	-11.4374
▁location	-11.4394
▁skip	-11.4395
▁weapon	-11.4396
▁website	-11.4396
▁hint	-11.4398
▁pepper	-11.4398
▁burrito	-11.4398
▁zombie	-11.4398
▁gear	-11.4399
▁costume	-11.4399
▁monster	-11.4401
▁snack	-11.4401
▁classmate	-11.4401
▁flip	-11.4403
▁craft	-11.4404
▁backpack	-11.4406
▁confess	-11.4409
▁bang	-11.4411
▁complaint	-11.4414
look	-11.4415
▁gather	-11.4416
▁shoot	-11.4417
▁taxi	-11.4428
▁recognize	-11.443
rma	-11.443
employed	-11.4439
▁tomato	-11.4439
▁document	-11.444
▁statistic	-11.4441
▁appetite	-11.4441
▁athlete	-11.4441
▁australia	-11.4441
▁bbq	-11.4441
▁compliment	-11.4441
▁coyote	-11.4441
▁distraught	-11.4441
▁downtown	-11.4441
▁ecstatic	-11.4441
▁emergencies	-11.4441
▁evidence	-11.4441
▁fifa	-11.4441
▁fireworks	-11.4441
▁hospice	-11.4441
▁intruder	-11.4441
▁lasagna	-11.4441
▁maintenance	-11.4441
▁miami	-11.4441
▁mirror	-11.4441
▁nervewracking	-11.4441
▁pepperoni	-11.4441
▁piano	-11.4441
▁popcorn	-11.4441
▁preseason	-11.4441
▁swerve	-11.4441
▁technical	-11.4441
▁upstairs	-11.4441
▁idiot	-11.4441
▁interstate	-11.4441
▁horrified	-11.4441
▁jackpot	-11.4441
▁receiving	-11.4441
▁abusive	-11.4441
▁boston	-11.4441
▁ceiling	-11.4441
▁hidden	-11.4441
▁devastating	-11.4441
▁maintain	-11.4441
▁revenge	-11.4441
▁distant	-11.4441
▁wrist	-11.4441
▁harsh	-11.4441
▁imagination	-11.4441
▁keyboard	-11.4441
▁bicycle	-11.4441
▁ceremony	-11.4441
▁clumsy	-11.4441
▁horribly	-11.4441
▁95	-11.4441
▁cabin	-11.4442
▁bodies	-11.4442
▁entitled	-11.4442
▁cities	-11.4442
▁electricity	-11.4442
▁leap	-11.4442
▁deck	-11.4442
▁adoption	-11.4442
▁medal	-11.4442
▁navy	-11.4442
▁satisfying	-11.4442
▁loyalty	-11.4442
▁nine	-11.4442
▁spooked	-11.4442
▁knowledge	-11.4443
▁deadline	-11.4443
▁wide	-11.4443
▁fulltime	-11.4443
▁data	-11.4443
▁250	-11.4443
▁babysitting	-11.4444
▁stable	-11.4444
▁ze	-11.4444
▁candies	-11.4446
▁inspiration	-11.4446
▁van	-11.4447
▁commercials	-11.4447
▁slammed	-11.4447
▁cave	-11.4448
▁sweaty	-11.4448
▁chest	-11.4448
▁melt	-11.4448
▁declined	-11.4448
▁matches	-11.4449
▁timing	-11.4449
▁useful	-11.445
▁brakes	-11.4451
▁errands	-11.4451
▁difficulties	-11.4453
▁informed	-11.4455
▁hyped	-11.4455
▁settled	-11.4456
▁shout	-11.4457
▁naturally	-11.4459
▁flirting	-11.4461
▁among	-11.4462
▁counter	-11.4463
▁surprisingly	-11.4463
▁lunches	-11.4464
▁outdoors	-11.4467
▁ups	-11.4472
▁hr	-11.4472
estate	-11.4474
▁colleagues	-11.4475
▁smaller	-11.4477
▁divorced	-11.4481
ried	-11.4482
patio	-11.4484
▁chips	-11.4484
▁achieved	-11.4484
▁effects	-11.4491
▁ducks	-11.4499
▁crowded	-11.4499
▁clo	-11.4499
ural	-11.4503
▁apples	-11.4507
pped	-11.4507
▁episodes	-11.451
▁kissing	-11.4518
▁slice	-11.452
▁washed	-11.4523
▁answered	-11.4531
▁flipp	-11.4533
▁sp	-11.4536
▁blowing	-11.4537
▁kicking	-11.4545
0	-11.4548
▁forth	-11.455
▁apps	-11.4551
▁horses	-11.4554
oke	-11.4556
▁rushed	-11.457
▁conversations	-11.457
▁complained	-11.4591
can	-11.4605
▁recipes	-11.4607
gging	-11.462
▁presenting	-11.4655
▁simp	-11.4681
ddy	-11.471
▁needing	-11.4715
▁willing	-11.4719
▁wh	-11.4773
▁sundays	-11.4773
▁west	-11.4833
oof	-11.4853
vel	-11.4882
▁happend	-11.4904
▁tires	-11.4922
▁wo	-11.4926
▁streets	-11.4937
▁seconds	-11.4942
▁cases	-11.4959
▁def	-11.4983
▁snuggle	-11.5018
▁tag	-11.5038
cu	-11.5039
▁partners	-11.507
▁accuse	-11.5073
▁needles	-11.5075
▁pant	-11.5121
cted	-11.5144
▁cakes	-11.516
bs	-11.5162
▁beard	-11.52
▁whip	-11.5234
son	-11.5236
▁bas	-11.5281
ure	-11.5327
▁tap	-11.5335
▁redo	-11.5356
▁hop	-11.5363
where	-11.5365
▁east	-11.5385
▁figur	-11.5387
▁pig	-11.5388
▁aisle	-11.5389
▁suspect	-11.5389
▁asks	-11.5393
▁individual	-11.5394
▁appear	-11.5398
▁outfit	-11.5398
▁ankle	-11.5399
▁reconnect	-11.5399
▁decade	-11.5399
▁gut	-11.54
▁comic	-11.54
▁bless	-11.5401
▁tent	-11.5404
▁hill	-11.541
ton	-11.5414
▁ditch	-11.5417
▁drag	-11.5422
ify	-11.5424
▁tempt	-11.543
▁relieve	-11.543
field	-11.5431
▁tense	-11.5431
just	-11.5431
▁mature	-11.5433
▁branch	-11.5439
▁potato	-11.5439
▁fb	-11.544
▁confide	-11.544
▁brilliant	-11.5441
▁cadillac	-11.5441
▁cleveland	-11.5441
▁communication	-11.5441
▁condolences	-11.5441
▁consequences	-11.5441
▁cryptocurrency	-11.5441
▁deposit	-11.5441
▁eggplant	-11.5441
▁equipment	-11.5441
▁error	-11.5441
▁falcons	-11.5441
▁harvard	-11.5441
▁hesitant	-11.5441
▁insecure	-11.5441
▁malfunction	-11.5441
▁messaging	-11.5441
▁paranoid	-11.5441
▁parrot	-11.5441
▁pineapple	-11.5441
▁sensitive	-11.5441
▁shrimp	-11.5441
▁skunk	-11.5441
▁sophomore	-11.5441
▁sunshine	-11.5441
▁suprise	-11.5441
▁therapist	-11.5441
▁thoroughly	-11.5441
▁thrift	-11.5441
▁unfaithful	-11.5441
▁horrifying	-11.5441
▁queen	-11.5441
▁decorating	-11.5441
▁pumpkin	-11.5441
▁transition	-11.5441
▁stadium	-11.5441
▁flashlight	-11.5441
▁gorgeous	-11.5441
▁permission	-11.5441
▁exterminator	-11.5441
▁foster	-11.5441
▁bunny	-11.5441
▁boil	-11.5441
▁religious	-11.5441
▁operation	-11.5441
▁racing	-11.5441
▁smartphone	-11.5441
▁prom	-11.5441
▁bullied	-11.5441
▁hook	-11.5441
▁hostel	-11.5441
▁commitment	-11.5442
▁caramel	-11.5442
▁zone	-11.5442
▁describe	-11.5442
▁flush	-11.5442
▁meaningful	-11.5442
▁rejection	-11.5442
▁geez	-11.5442
▁flash	-11.5442
▁carefree	-11.5442
▁sharp	-11.5442
▁overnight	-11.5442
▁spain	-11.5442
▁rally	-11.5442
▁james	-11.5442
▁anticipate	-11.5442
▁regardless	-11.5442
▁tries	-11.5442
▁disturbing	-11.5442
▁advise	-11.5443
▁reunited	-11.5443
▁kart	-11.5443
▁portion	-11.5443
▁antsy	-11.5443
▁facetime	-11.5443
▁bakery	-11.5444
▁brownies	-11.5444
▁selfish	-11.5445
▁kayaking	-11.5445
▁fade	-11.5445
▁pleasure	-11.5446
▁march	-11.5447
▁raw	-11.5447
▁rubb	-11.5447
▁peeved	-11.5448
▁playoffs	-11.5448
▁yankees	-11.5448
▁chosen	-11.5448
retake	-11.545
▁asia	-11.545
▁screwed	-11.5451
▁originally	-11.5452
▁photographs	-11.5452
▁olympics	-11.5456
▁consistent	-11.5457
▁sickness	-11.5458
▁pricey	-11.546
▁poisoning	-11.5461
▁fondly	-11.5461
▁sue	-11.5461
▁busted	-11.5462
▁justice	-11.5464
▁objects	-11.5465
▁created	-11.5469
▁boots	-11.547
▁reasonable	-11.5471
▁successfully	-11.5474
▁entering	-11.5479
▁enjoyable	-11.548
▁funds	-11.5482
▁decades	-11.5483
▁bathing	-11.5483
▁tape	-11.5486
▁sincere	-11.5487
▁flooding	-11.5487
▁bare	-11.5487
▁ba	-11.5488
▁concerns	-11.5492
▁wire	-11.5493
▁notes	-11.5494
▁magical	-11.5495
▁honesty	-11.5495
▁poorly	-11.5497
▁creeps	-11.5499
▁image	-11.5507
▁slapp	-11.5508
▁coolest	-11.5514
▁healing	-11.5516
▁yea	-11.5518
▁politics	-11.5518
▁marketing	-11.5519
▁investing	-11.5529
na	-11.5532
▁dar	-11.5532
ign	-11.5533
▁visits	-11.5533
ard	-11.5534
▁carefully	-11.5536
▁theirs	-11.5539
▁walls	-11.554
▁rec	-11.5541
▁plates	-11.5545
▁crowds	-11.5545
▁wipe	-11.557
▁wishes	-11.5575
▁lone	-11.5579
▁curl	-11.5588
▁bugg	-11.5592
▁nails	-11.5615
▁dates	-11.5619
▁treating	-11.5628
▁films	-11.5629
▁tournaments	-11.5638
▁prep	-11.5646
▁fam	-11.5649
▁levels	-11.5652
▁honors	-11.5652
▁island	-11.5655
our	-11.5659
ff	-11.5674
ke	-11.5678
vid	-11.5722
▁dated	-11.5784
▁cycle	-11.5787
▁shoulder	-11.5808
ating	-11.5833
▁rats	-11.5834
▁counts	-11.5847
▁returns	-11.5853
ternity	-11.5928
sp	-11.5936
▁le	-11.6025
dded	-11.6038
▁seek	-11.6039
go	-11.6042
▁weights	-11.6073
▁forest	-11.6076
▁el	-11.6096
▁fund	-11.6159
▁desire	-11.6176
▁startle	-11.6179
ise	-11.6192
▁apartments	-11.6205
▁nes	-11.6217
▁div	-11.6281
▁ro	-11.6325
▁ne	-11.6361
▁roads	-11.6362
▁meetings	-11.6363
▁ar	-11.6369
aking	-11.6403
if	-11.641
ism	-11.6454
▁slap	-11.648
▁boom	-11.6487
hole	-11.6489
▁perspective	-11.65
▁jeep	-11.65
▁dragon	-11.6506
▁checks	-11.6506
▁sweetheart	-11.6507
▁detail	-11.6507
▁cuddle	-11.6507
▁jet	-11.6507
▁economic	-11.6508
▁uniform	-11.6508
▁fruit	-11.6509
▁winner	-11.6509
▁comment	-11.651
▁provider	-11.651
▁guest	-11.651
der	-11.651
▁colleague	-11.6511
▁checkout	-11.6513
▁actor	-11.6516
▁trail	-11.6518
▁upgrade	-11.6523
▁renew	-11.6526
▁flirt	-11.6527
▁chew	-11.6528
▁poke	-11.6531
▁spell	-11.6531
6	-11.6532
▁twin	-11.6533
water	-11.6535
even	-11.6539
▁press	-11.6543
▁betray	-11.6545
▁dare	-11.6546
▁moral	-11.6549
▁weigh	-11.6549
owl	-11.655
▁print	-11.655
▁cockroach	-11.6551
▁psych	-11.6551
▁administration	-11.6552
▁arcade	-11.6552
▁circumstances	-11.6552
▁communicate	-11.6552
▁competing	-11.6552
▁convenient	-11.6552
▁counseling	-11.6552
▁cozumel	-11.6552
▁dairy	-11.6552
▁dallas	-11.6552
▁democrats	-11.6552
▁diamond	-11.6552
▁doorstep	-11.6552
▁fortune	-11.6552
▁fraud	-11.6552
▁increasing	-11.6552
▁independence	-11.6552
▁lawnmower	-11.6552
▁lobster	-11.6552
▁perfume	-11.6552
▁policies	-11.6552
▁racist	-11.6552
▁scenario	-11.6552
▁turbul	-11.6552
▁tutor	-11.6552
▁unemployment	-11.6552
▁unusual	-11.6552
▁fragile	-11.6552
▁recognition	-11.6552
dispute	-11.6552
▁determination	-11.6552
▁fortnite	-11.6552
▁solid	-11.6552
▁occupied	-11.6552
▁activity	-11.6552
▁western	-11.6552
▁cautio	-11.6552
▁shade	-11.6552
▁wolf	-11.6552
▁massive	-11.6552
▁contain	-11.6552
▁soulmate	-11.6552
▁unprepared	-11.6552
▁resort	-11.6552
▁feat	-11.6552
▁transportation	-11.6552
▁crab	-11.6552
▁impatient	-11.6552
▁studies	-11.6552
▁trait	-11.6552
▁basis	-11.6552
▁drain	-11.6552
▁nerd	-11.6552
▁extension	-11.6552
▁roam	-11.6552
▁bracelet	-11.6552
▁grandson	-11.6553
▁concentrate	-11.6553
▁yummy	-11.6553
▁epic	-11.6553
▁desperate	-11.6553
▁weak	-11.6553
▁transmission	-11.6553
▁curve	-11.6553
▁enemy	-11.6553
▁further	-11.6553
▁acceptance	-11.6553
▁skinny	-11.6554
▁praise	-11.6554
▁punishment	-11.6554
▁pilot	-11.6554
▁respectful	-11.6554
▁sentence	-11.6554
▁network	-11.6554
▁cockroaches	-11.6554
▁rash	-11.6554
▁steady	-11.6554
▁selected	-11.6554
▁mailman	-11.6554
▁trade	-11.6554
▁shave	-11.6554
▁cough	-11.6554
▁assured	-11.6554
▁noble	-11.6554
▁awoke	-11.6554
▁pure	-11.6554
▁liar	-11.6554
▁mode	-11.6554
▁tension	-11.6555
▁shameful	-11.6555
▁relaxation	-11.6555
▁butterflies	-11.6555
▁sickened	-11.6555
▁honey	-11.6555
▁rome	-11.6555
▁hood	-11.6557
▁beaten	-11.6557
▁uk	-11.6558
▁cord	-11.6558
▁appliances	-11.656
▁candles	-11.656
▁sneaky	-11.6561
▁loop	-11.6561
▁certifi	-11.6564
▁removed	-11.6564
▁quitting	-11.6564
▁password	-11.6565
▁bid	-11.6565
▁click	-11.6565
▁shelf	-11.6566
▁behaved	-11.6567
▁signal	-11.6567
▁bragg	-11.6568
▁lifetime	-11.6569
▁unlocked	-11.6569
▁critters	-11.6569
▁nuggets	-11.6569
▁reservations	-11.6569
▁decorate	-11.657
▁recovery	-11.6572
▁slower	-11.6577
▁manners	-11.6579
▁overslept	-11.6581
▁growth	-11.6582
▁juice	-11.6589
▁juggle	-11.6589
▁passes	-11.6589
▁legos	-11.659
▁author	-11.659
▁spa	-11.6592
riving	-11.6594
▁defend	-11.6596
▁fir	-11.6602
▁punished	-11.6603
▁costumes	-11.6604
▁shortly	-11.6613
▁wheels	-11.6614
▁musicians	-11.6614
▁metal	-11.6615
▁submitt	-11.6617
▁affected	-11.6621
ams	-11.6622
▁texted	-11.6628
▁channels	-11.6629
▁mates	-11.663
ore	-11.663
▁bats	-11.663
▁humble	-11.6632
▁accounting	-11.6637
▁employers	-11.6639
▁healed	-11.664
ig	-11.6643
▁knees	-11.6644
▁create	-11.6645
▁shifts	-11.6649
▁greet	-11.665
▁carts	-11.6656
▁expans	-11.6657
▁jokes	-11.6659
▁adventures	-11.6659
▁pros	-11.666
▁tub	-11.6667
▁messages	-11.6679
▁leads	-11.6679
▁promises	-11.6694
▁lik	-11.6701
▁calming	-11.6705
dn	-11.6712
som	-11.6714
▁shoulders	-11.6727
▁complaining	-11.6732
struck	-11.6748
ipped	-11.6748
▁coll	-11.675
gh	-11.6764
▁kittens	-11.6769
og	-11.6772
▁smelling	-11.6772
ning	-11.6772
▁longest	-11.6776
▁regrets	-11.6806
▁shelters	-11.682
having	-11.6844
ex	-11.6846
▁meg	-11.6849
▁buildings	-11.685
▁soo	-11.6858
▁debts	-11.6871
▁stars	-11.6876
▁carrie	-11.691
mo	-11.6928
▁signs	-11.6934
▁degrees	-11.6973
was	-11.6978
▁accus	-11.698
▁newest	-11.6984
▁testing	-11.7026
▁services	-11.7035
▁ge	-11.704
▁sum	-11.7065
▁meals	-11.7072
pm	-11.7084
▁introduc	-11.7113
▁summers	-11.7119
haha	-11.7122
tic	-11.7133
▁sw	-11.7141
▁babys	-11.7144
ls	-11.7209
▁digg	-11.7213
▁cons	-11.7222
▁mornings	-11.7232
▁faces	-11.7241
ron	-11.7244
▁rum	-11.7246
▁rains	-11.7263
▁tapp	-11.7276
ir	-11.7332
▁ben	-11.7335
▁ban	-11.7354
▁na	-11.7368
▁mi	-11.7373
ding	-11.7374
▁scam	-11.7451
▁hardwork	-11.747
well	-11.7495
▁grace	-11.7495
▁tri	-11.7524
▁400	-11.7534
▁walks	-11.7535
▁seasons	-11.7593
vi	-11.7639
ery	-11.7679
▁slack	-11.7702
▁gap	-11.7702
▁joe	-11.7724
ol	-11.7732
▁interrupt	-11.7742
▁addict	-11.7747
▁museum	-11.775
▁disgust	-11.7754
how	-11.7754
▁function	-11.7754
▁shadow	-11.7755
▁towel	-11.7757
▁olive	-11.7761
▁squa	-11.7761
▁agent	-11.7761
▁intention	-11.7762
ph	-11.7762
▁spin	-11.7764
▁lego	-11.7768
▁charg	-11.7768
▁breakup	-11.7768
▁connect	-11.7771
▁afterward	-11.7771
▁drown	-11.7777
▁poison	-11.7777
▁pla	-11.7778
▁grind	-11.7779
3	-11.7783
▁embarrass	-11.7784
▁evacuate	-11.779
like	-11.779
house	-11.7792
tuition	-11.7792
craft	-11.7792
cake	-11.7792
familiar	-11.7792
▁slam	-11.7793
▁ultimate	-11.7794
▁constant	-11.7795
ency	-11.7795
▁attract	-11.7796
▁russia	-11.7798
▁profit	-11.7801
ictori	-11.7801
▁trauma	-11.7802
▁silver	-11.7802
▁advocate	-11.7802
▁algebra	-11.7802
▁allergies	-11.7802
▁arguing	-11.7802
▁backflip	-11.7802
▁carnival	-11.7802
▁christian	-11.7802
▁cinema	-11.7802
▁clinton	-11.7802
▁concrete	-11.7802
▁conscience	-11.7802
▁craigslist	-11.7802
▁crisis	-11.7802
▁culprit	-11.7802
▁elevator	-11.7802
▁entrance	-11.7802
▁footsteps	-11.7802
▁genius	-11.7802
▁guarantee	-11.7802
▁gullible	-11.7802
▁hectic	-11.7802
▁infected	-11.7802
▁intelligent	-11.7802
▁january	-11.7802
▁luggage	-11.7802
▁monitor	-11.7802
▁obnoxious	-11.7802
▁orange	-11.7802
▁ordeal	-11.7802
▁overwhelmed	-11.7802
▁pancreatitis	-11.7802
▁policy	-11.7802
▁prompt	-11.7802
▁qualify	-11.7802
▁quilt	-11.7802
▁replacing	-11.7802
▁stubborn	-11.7802
▁technician	-11.7802
▁thirty	-11.7802
▁toyota	-11.7802
▁transplant	-11.7802
▁unacceptable	-11.7802
▁violent	-11.7802
▁miscarriage	-11.7802
▁montreal	-11.7802
▁mutt	-11.7802
▁quiz	-11.7802
▁resist	-11.7802
▁smiling	-11.7802
▁strike	-11.7802
▁swift	-11.7802
▁initial	-11.7802
▁consult	-11.7802
▁exited	-11.7802
▁instance	-11.7802
▁sunscreen	-11.7802
▁temperature	-11.7802
▁cafe	-11.7802
▁venom	-11.7802
▁grandkids	-11.7802
▁construction	-11.7802
▁sofa	-11.7802
▁lease	-11.7802
▁batteries	-11.7802
▁arriving	-11.7802
▁gender	-11.7802
▁shotgun	-11.7802
▁healthcare	-11.7802
▁lizard	-11.7802
▁swam	-11.7802
▁skype	-11.7803
▁bushes	-11.7803
▁china	-11.7803
▁beaming	-11.7803
▁belief	-11.7803
▁lame	-11.7803
▁mobile	-11.7803
▁display	-11.7803
▁hammer	-11.7803
▁documentary	-11.7803
▁realistic	-11.7803
▁spiderman	-11.7803
▁fever	-11.7803
▁toast	-11.7803
▁fuzzy	-11.7803
▁tank	-11.7803
▁admitted	-11.7803
▁grieve	-11.7804
▁unbelievable	-11.7804
▁clearance	-11.7804
▁kim	-11.7804
▁referring	-11.7804
▁heartbreaking	-11.7804
▁infuriating	-11.7804
▁promising	-11.7804
▁esteem	-11.7804
▁conscious	-11.7804
▁humanity	-11.7804
▁coverage	-11.7804
▁classroom	-11.7805
▁swell	-11.7805
▁nachos	-11.7805
▁veggie	-11.7806
▁perk	-11.7806
▁suspens	-11.7806
▁possession	-11.7806
▁fearful	-11.7806
▁recommendation	-11.7806
▁meantime	-11.7807
▁priceless	-11.7807
▁reply	-11.7807
▁600	-11.7807
▁moldy	-11.7807
▁26	-11.7807
▁refreshing	-11.7807
▁inherited	-11.7807
▁published	-11.7808
▁robot	-11.7809
▁bumper	-11.781
▁flyers	-11.781
▁shovel	-11.7811
▁lit	-11.7811
▁lick	-11.7812
▁max	-11.7813
▁mommy	-11.7813
▁bruise	-11.7815
▁bitter	-11.7816
▁organi	-11.7816
▁speeches	-11.7818
▁bubble	-11.782
▁lion	-11.7821
▁assignments	-11.7822
▁addicted	-11.7828
▁participated	-11.783
▁planet	-11.7832
▁reconnected	-11.7835
▁dealer	-11.7837
▁banging	-11.7837
▁features	-11.7839
▁olives	-11.7845
▁doggy	-11.7845
▁murdered	-11.7846
▁improved	-11.7849
▁guests	-11.785
▁actors	-11.7851
kill	-11.7854
▁vomiting	-11.7854
▁guts	-11.7856
▁smelly	-11.7858
▁gears	-11.7861
▁cd	-11.7862
▁browns	-11.7873
▁mustang	-11.7884
pe	-11.7884
▁terms	-11.7884
▁sharks	-11.7884
▁belly	-11.7885
▁headaches	-11.789
▁bail	-11.7893
▁performing	-11.7895
rink	-11.7895
ailing	-11.7898
▁kings	-11.7906
▁elections	-11.7907
▁backup	-11.7911
▁anticipated	-11.7916
▁shakes	-11.7918
▁clowns	-11.7924
▁answering	-11.7926
ns	-11.793
terior	-11.7933
ach	-11.7933
make	-11.7935
ves	-11.7936
▁wing	-11.7941
▁periods	-11.7947
ions	-11.7949
▁cap	-11.7959
jury	-11.7961
▁seats	-11.7964
▁occasions	-11.797
▁performer	-11.7976
▁recovers	-11.7976
▁odds	-11.7987
▁hustle	-11.7992
▁remote	-11.7993
▁researching	-11.7997
▁gardening	-11.8011
▁avoided	-11.8015
nel	-11.8018
▁owners	-11.8023
▁spic	-11.8027
▁talents	-11.8028
▁differently	-11.8029
▁kicks	-11.8051
▁warn	-11.8062
▁jam	-11.8064
▁inch	-11.8069
unker	-11.809
▁attacks	-11.8097
▁freez	-11.8101
▁willi	-11.8102
▁efforts	-11.8102
▁thin	-11.8119
▁shops	-11.8142
▁pieces	-11.8161
▁scores	-11.817
▁dove	-11.8171
▁spots	-11.8172
▁legal	-11.8178
il	-11.8187
▁pal	-11.8215
▁relive	-11.8215
▁burgers	-11.8219
▁pooping	-11.8227
ged	-11.824
ac	-11.8269
▁bust	-11.8273
▁figures	-11.8275
▁imagin	-11.8292
rt	-11.8293
cky	-11.8293
▁para	-11.8297
▁sl	-11.8319
▁cooks	-11.835
▁boo	-11.8394
inos	-11.8401
oon	-11.8406
ud	-11.8407
lor	-11.8414
▁bean	-11.8436
izer	-11.8437
rious	-11.844
▁semi	-11.8487
▁tan	-11.8489
▁bars	-11.8492
▁jog	-11.8509
▁iron	-11.8543
▁web	-11.855
met	-11.8552
▁grave	-11.8569
ile	-11.8576
ot	-11.8586
red	-11.861
▁concerts	-11.8621
▁dive	-11.8631
la	-11.8641
▁commit	-11.8645
▁bi	-11.8655
▁sti	-11.8659
ris	-11.8661
lo	-11.8689
▁du	-11.8707
▁bounce	-11.873
op	-11.8742
▁continu	-11.8749
▁nois	-11.875
▁reliv	-11.8776
▁achiev	-11.8819
ching	-11.8832
▁gi	-11.884
▁cu	-11.8867
▁shine	-11.8869
sey	-11.8869
lly	-11.8875
ys	-11.8876
ives	-11.8889
▁pad	-11.889
▁sour	-11.8911
▁bri	-11.8937
are	-11.9002
▁mac	-11.9018
▁slim	-11.9038
▁creat	-11.9077
▁mon	-11.9077
▁rooms	-11.9086
chi	-11.9097
ung	-11.9106
▁shoo	-11.9125
▁boot	-11.9128
▁fin	-11.9137
have	-11.9151
▁wrap	-11.9159
▁sacrifice	-11.9179
▁frame	-11.918
▁leak	-11.9182
▁juggl	-11.9183
▁criminal	-11.9183
▁juic	-11.9184
▁bum	-11.9184
▁bullet	-11.9184
▁dessert	-11.9186
▁instrument	-11.9186
▁essential	-11.9188
▁hamburger	-11.9188
▁instinct	-11.9188
▁skate	-11.9188
▁mosquito	-11.9188
▁rose	-11.9188
▁feature	-11.9189
▁thunderstorm	-11.9189
uction	-11.9193
▁finance	-11.9194
▁mold	-11.9196
▁alert	-11.9199
▁skateboard	-11.92
com	-11.92
▁adjust	-11.92
▁uni	-11.9201
▁remodel	-11.9202
friend	-11.9203
▁cro	-11.9204
▁abandon	-11.9205
▁install	-11.9205
▁outdoor	-11.9207
lbs	-11.9208
▁sentiment	-11.9211
▁speaker	-11.9213
▁ver	-11.9214
▁acknowledge	-11.9218
▁choke	-11.922
▁irritate	-11.922
64	-11.922
paper	-11.9221
gave	-11.9221
burger	-11.9221
still	-11.9222
▁rub	-11.9223
ably	-11.9223
▁instant	-11.9223
▁proper	-11.9224
when	-11.9224
▁cab	-11.9225
▁german	-11.9225
▁yuck	-11.9225
▁disagree	-11.9227
ison	-11.9227
▁gamble	-11.9228
▁inspire	-11.9229
▁dec	-11.9229
▁champ	-11.923
▁twent	-11.923
▁humid	-11.923
▁represent	-11.923
▁civil	-11.923
▁transport	-11.923
▁compassion	-11.9231
▁pho	-11.9231
▁calc	-11.9231
▁alligator	-11.9231
▁appeal	-11.9231
▁appropriate	-11.9231
▁armadillo	-11.9231
▁blackjack	-11.9231
▁brazil	-11.9231
▁bridesmaid	-11.9231
▁bridge	-11.9231
▁caregiver	-11.9231
▁chipotle	-11.9231
▁concept	-11.9231
▁conference	-11.9231
▁costco	-11.9231
▁diagnosis	-11.9231
▁dolphin	-11.9231
▁encounter	-11.9231
▁ethic	-11.9231
▁exhibit	-11.9231
▁frustration	-11.9231
▁gallon	-11.9231
▁garlic	-11.9231
▁ignoring	-11.9231
▁jello	-11.9231
▁jitter	-11.9231
▁ketchup	-11.9231
▁leisure	-11.9231
▁library	-11.9231
▁london	-11.9231
▁nanny	-11.9231
▁orleans	-11.9231
▁popsicles	-11.9231
▁privacy	-11.9231
▁receipt	-11.9231
▁region	-11.9231
▁salon	-11.9231
▁sneeze	-11.9231
▁strzok	-11.9231
▁unsafe	-11.9231
▁vegetarian	-11.9231
▁worrisome	-11.9231
▁wrangler	-11.9231
▁purple	-11.9231
▁resident	-11.9231
▁tackle	-11.9231
▁booze	-11.9231
▁jewelry	-11.9231
▁motor	-11.9231
▁trigger	-11.9231
▁variety	-11.9231
▁ceo	-11.9231
▁pimple	-11.9231
▁presidency	-11.9231
▁welcoming	-11.9231
▁combination	-11.9231
▁destination	-11.9231
▁refrigerator	-11.9231
▁disneyworld	-11.9231
seba	-11.9231
▁jerry	-11.9231
▁hungover	-11.9231
▁skirt	-11.9231
▁massage	-11.9231
▁alabama	-11.9231
▁nagging	-11.9231
▁shall	-11.9231
▁uncertainty	-11.9231
▁digital	-11.9231
▁lining	-11.9231
▁ridden	-11.9231
▁creative	-11.9231
▁roach	-11.9231
▁humidity	-11.9231
▁eternity	-11.9231
▁2006	-11.9231
▁magician	-11.9231
▁salesman	-11.9231
▁saint	-11.9231
▁punk	-11.9232
▁clinic	-11.9232
▁daunting	-11.9232
▁pitbull	-11.9232
▁temporary	-11.9232
▁artistic	-11.9232
▁streak	-11.9232
▁hotdog	-11.9232
▁ladder	-11.9232
▁vision	-11.9232
▁potter	-11.9232
▁yum	-11.9232
▁gul	-11.9232
▁mild	-11.9232
▁explode	-11.9232
▁socialize	-11.9232
▁cocky	-11.9233
▁bitten	-11.9233
▁trial	-11.9233
▁dna	-11.9233
▁diligent	-11.9233
▁stack	-11.9233
▁experiment	-11.9233
▁roast	-11.9233
▁dissect	-11.9234
▁rotting	-11.9234
ngee	-11.9234
▁temptation	-11.9234
▁hallway	-11.9234
▁gay	-11.9234
stian	-11.9234
▁freezer	-11.9235
▁powerful	-11.9235
▁kidney	-11.9235
▁overwatch	-11.9235
▁congress	-11.9236
▁announced	-11.9236
▁officially	-11.9236
▁insult	-11.9236
▁mansion	-11.9238
▁occurred	-11.9238
▁blo	-11.9238
▁peak	-11.9239
▁separated	-11.924
▁darkness	-11.9241
▁involve	-11.9241
▁investors	-11.9241
▁collector	-11.9241
▁pickles	-11.9242
▁feder	-11.9243
▁fal	-11.9244
▁64	-11.9245
▁insisted	-11.9245
▁flake	-11.9245
▁chemicals	-11.9247
▁coupons	-11.9247
▁drums	-11.9247
dium	-11.9249
chief	-11.925
▁ham	-11.925
▁correctly	-11.9253
▁update	-11.9253
▁squirrels	-11.9254
▁studios	-11.9254
▁affordable	-11.9255
▁adjusting	-11.9256
going	-11.9256
▁pointless	-11.9256
▁shorter	-11.9257
▁treasured	-11.9259
▁drowning	-11.926
▁grinding	-11.926
▁square	-11.926
▁underdogs	-11.926
▁cursed	-11.926
▁curse	-11.9262
▁sin	-11.9262
▁renewed	-11.9265
sky	-11.9267
▁arch	-11.9268
▁instruments	-11.9273
▁dust	-11.9274
▁statement	-11.928
▁incompetent	-11.9284
▁collected	-11.9286
▁peel	-11.9291
▁balle	-11.9292
▁outfits	-11.9293
▁deeply	-11.9295
▁asian	-11.9296
▁sober	-11.9299
▁slices	-11.9299
▁paw	-11.9302
▁candidates	-11.9306
▁interviewer	-11.9314
▁limited	-11.9315
▁code	-11.9315
▁sting	-11.9317
▁mentioned	-11.9318
▁peeing	-11.932
▁ya	-11.9325
▁treatments	-11.9327
und	-11.9329
▁recording	-11.9343
ons	-11.9343
▁breathing	-11.9343
▁eyed	-11.9343
▁recovering	-11.9351
▁dancer	-11.9356
▁ears	-11.9362
sion	-11.9367
▁picky	-11.9369
ress	-11.937
▁brewer	-11.9382
▁gamer	-11.9388
▁crashing	-11.9406
▁fre	-11.9407
▁cooler	-11.941
▁log	-11.9425
▁rolled	-11.9425
ki	-11.943
12	-11.9437
▁charges	-11.9448
▁repairs	-11.9453
▁doggie	-11.9461
▁sca	-11.9462
▁hol	-11.9475
▁rings	-11.9486
▁deli	-11.9493
▁va	-11.9496
▁nicely	-11.9506
▁biting	-11.951
py	-11.9525
▁shirts	-11.9527
os	-11.9534
▁locks	-11.9541
▁races	-11.9547
ti	-11.9584
▁sorted	-11.9589
▁venture	-11.959
▁parenting	-11.9596
ia	-11.9597
su	-11.9604
▁attitudes	-11.9622
▁winters	-11.9656
ky	-11.9663
▁outback	-11.9664
ummy	-11.9674
pack	-11.9685
▁chickens	-11.9698
umbled	-11.9711
day	-11.9729
mony	-11.9731
▁stormed	-11.9731
tle	-11.9734
▁gla	-11.9743
▁winnings	-11.9753
▁monthly	-11.9763
net	-11.9769
▁beats	-11.9815
▁pin	-11.9832
▁swor	-11.9866
▁har	-11.9888
izing	-11.9891
olley	-11.9902
dged	-11.9917
tting	-11.9951
▁rewatch	-11.9968
▁mans	-12.0004
▁novel	-12.0006
all	-12.0038
▁poops	-12.0074
▁sis	-12.0077
▁pac	-12.0092
▁moves	-12.0107
ger	-12.0108
one	-12.0124
▁pursu	-12.0128
tor	-12.0139
▁spe	-12.0176
▁flag	-12.0193
uld	-12.0258
ner	-12.0276
▁points	-12.0288
▁sides	-12.031
▁cree	-12.0376
ra	-12.0386
▁fis	-12.0394
▁falls	-12.0414
▁doll	-12.0437
▁ni	-12.0476
▁sheet	-12.0495
ened	-12.0505
long	-12.0541
▁barbe	-12.0567
ying	-12.0585
let	-12.0599
▁ob	-12.0604
▁spice	-12.0611
de	-12.0617
by	-12.0695
▁refus	-12.0699
nut	-12.0708
▁triple	-12.0731
▁0	-12.0741
ward	-12.0748
▁jur	-12.0763
ficial	-12.0777
ster	-12.078
ef	-12.081
een	-12.0812
▁aspect	-12.0812
▁ste	-12.0818
ci	-12.0822
work	-12.0822
zed	-12.0826
▁snap	-12.0827
▁mat	-12.0828
▁ref	-12.0835
list	-12.0839
▁tune	-12.0845
▁banana	-12.0845
▁unaware	-12.0846
▁millionaire	-12.0846
▁sleepover	-12.0848
▁castle	-12.0849
▁chainsaw	-12.085
▁session	-12.085
ered	-12.085
▁bow	-12.0851
▁angel	-12.0851
▁nike	-12.0851
▁command	-12.0852
▁frog	-12.0853
▁cigarette	-12.0853
▁connection	-12.0854
▁embarras	-12.0855
▁possum	-12.0855
▁object	-12.0856
▁expense	-12.0856
▁alien	-12.0857
▁folk	-12.0857
cut	-12.0857
ground	-12.0858
▁multi	-12.0858
▁roomie	-12.0859
▁drawer	-12.086
▁manner	-12.0862
bo	-12.0864
▁height	-12.0864
▁predict	-12.0865
▁analys	-12.0868
▁writer	-12.0869
▁neglect	-12.0869
▁coin	-12.087
▁unlock	-12.0872
▁pump	-12.0876
▁separate	-12.0877
▁brag	-12.0879
▁prayer	-12.0879
▁zip	-12.0882
print	-12.0886
▁resolve	-12.0886
hill	-12.0887
fall	-12.0888
▁equal	-12.0889
▁permanent	-12.0889
hope	-12.0889
ended	-12.0889
boy	-12.0889
▁obvious	-12.089
▁gentle	-12.0891
▁cla	-12.0892
▁unlike	-12.0892
shots	-12.0892
▁frequent	-12.0892
▁husk	-12.0892
▁tha	-12.0893
▁coco	-12.0896
▁surround	-12.0897
▁assist	-12.0897
▁2019	-12.0897
▁adapt	-12.0897
▁africa	-12.0897
▁alaska	-12.0897
▁alfredo	-12.0897
▁allergy	-12.0897
▁arrival	-12.0897
▁audience	-12.0897
▁beggar	-12.0897
▁bigfoot	-12.0897
▁charm	-12.0897
▁chubby	-12.0897
▁cinna	-12.0897
▁confirm	-12.0897
▁conflict	-12.0897
▁crunch	-12.0897
▁csection	-12.0897
▁cuisine	-12.0897
▁deployed	-12.0897
▁description	-12.0897
▁diabetes	-12.0897
▁dirtbike	-12.0897
▁discouraging	-12.0897
▁energetic	-12.0897
▁exhusband	-12.0897
▁georg	-12.0897
▁gluten	-12.0897
▁graphic	-12.0897
▁grumpy	-12.0897
▁helicopter	-12.0897
▁illegal	-12.0897
▁inappropriate	-12.0897
▁indicators	-12.0897
▁investigate	-12.0897
▁jiu	-12.0897
▁jordan	-12.0897
▁judgment	-12.0897
▁louisiana	-12.0897
▁maggots	-12.0897
▁meatloaf	-12.0897
▁microwave	-12.0897
▁naughty	-12.0897
▁necessit	-12.0897
▁newborn	-12.0897
▁offense	-12.0897
▁pancreati	-12.0897
▁pencil	-12.0897
▁phobia	-12.0897
▁providing	-12.0897
▁puddle	-12.0897
▁puzzle	-12.0897
▁recruit	-12.0897
▁restaraunt	-12.0897
▁samsung	-12.0897
▁satisfaction	-12.0897
▁status	-12.0897
▁stereo	-12.0897
▁stove	-12.0897
▁strict	-12.0897
▁structure	-12.0897
▁surgeries	-12.0897
▁symptoms	-12.0897
▁troubling	-12.0897
▁ukelele	-12.0897
▁underneath	-12.0897
▁unhealthy	-12.0897
▁unpleasant	-12.0897
▁unzipped	-12.0897
▁virginia	-12.0897
▁waterslide	-12.0897
▁zealand	-12.0897
▁beauty	-12.0897
▁commend	-12.0897
▁conquer	-12.0897
▁hillbill	-12.0897
▁international	-12.0897
▁lsat	-12.0897
▁surreal	-12.0897
▁watermelon	-12.0897
▁yourselves	-12.0897
▁infant	-12.0897
▁lightening	-12.0897
▁midterm	-12.0897
▁procedure	-12.0897
▁pyr	-12.0897
▁sweep	-12.0897
▁traumatized	-12.0897
▁ugly	-12.0897
▁wisdo	-12.0897
▁bleeding	-12.0897
▁division	-12.0897
▁exceed	-12.0897
▁getaway	-12.0897
▁injuries	-12.0897
▁piercing	-12.0897
▁stutter	-12.0897
▁inconvenient	-12.0897
▁insect	-12.0897
▁mask	-12.0897
▁passenger	-12.0897
▁chaos	-12.0897
▁memorable	-12.0897
▁mutual	-12.0897
▁repeatedly	-12.0897
▁buzz	-12.0897
▁dozen	-12.0897
▁bennet	-12.0897
▁crucial	-12.0897
▁disrespectful	-12.0897
▁presence	-12.0897
▁atlanta	-12.0897
▁surroundings	-12.0897
▁copper	-12.0897
▁reception	-12.0897
▁sandals	-12.0897
▁sheep	-12.0897
▁tiger	-12.0897
▁destructive	-12.0897
▁fuel	-12.0897
▁glue	-12.0897
▁stability	-12.0897
▁ikea	-12.0898
▁june	-12.0898
▁surve	-12.0898
▁principal	-12.0898
▁scarred	-12.0898
▁yellow	-12.0898
▁heartwarming	-12.0898
▁spank	-12.0898
▁audition	-12.0898
▁dropping	-12.0898
▁mentor	-12.0898
▁serving	-12.0898
▁strive	-12.0898
▁sprain	-12.0898
▁appreciation	-12.0898
▁tuna	-12.0898
▁spark	-12.0898
▁batman	-12.0898
▁disappointment	-12.0898
▁poisonous	-12.0898
▁washington	-12.0898
▁yale	-12.0898
▁snatch	-12.0898
▁filthy	-12.0898
▁spooky	-12.0898
▁wander	-12.0898
▁beast	-12.0898
▁academic	-12.0898
▁salva	-12.0898
▁trunk	-12.0898
▁bac	-12.0898
▁reset	-12.0898
▁cardio	-12.0898
▁humiliating	-12.0898
▁expert	-12.0898
▁peru	-12.0899
▁diary	-12.0899
▁airline	-12.0899
▁puck	-12.0899
▁chirp	-12.0899
▁cranky	-12.0899
▁strategy	-12.0899
▁jones	-12.0899
▁shiver	-12.0899
▁shit	-12.0899
▁rattle	-12.0899
▁mosquitoes	-12.0899
▁fellow	-12.0899
▁waist	-12.0899
▁teammate	-12.09
▁thiev	-12.09
▁crew	-12.09
▁hiring	-12.09
▁exhausting	-12.09
▁intimidating	-12.09
▁warranty	-12.09
▁supper	-12.09
▁greedy	-12.09
▁limb	-12.09
▁pole	-12.09
wolves	-12.09
▁pillow	-12.09
▁tomatoes	-12.09
▁350	-12.0901
▁shore	-12.0901
▁frankl	-12.0901
▁clari	-12.0901
down	-12.0901
▁peeve	-12.0901
▁congratulat	-12.0901
▁denied	-12.0901
▁doughnuts	-12.0902
▁qualifications	-12.0902
▁republicans	-12.0902
▁supplements	-12.0902
▁33	-12.0902
▁150	-12.0902
▁voting	-12.0902
▁practically	-12.0902
▁slot	-12.0902
▁gameboy	-12.0903
▁rise	-12.0903
aur	-12.0903
▁wr	-12.0903
▁lous	-12.0904
▁disheartening	-12.0904
▁preordered	-12.0905
▁coat	-12.0905
▁remove	-12.0905
entic	-12.0905
▁devoted	-12.0906
▁freeway	-12.0907
dad	-12.0907
▁38	-12.0907
▁former	-12.0908
▁director	-12.0908
▁fry	-12.091
▁dough	-12.091
▁epi	-12.091
▁popped	-12.091
▁worms	-12.091
▁reassuring	-12.0911
▁workforce	-12.0911
▁vows	-12.0911
▁hut	-12.0911
▁reverse	-12.0912
▁sandwiches	-12.0913
▁lecturer	-12.0914
▁poured	-12.0914
▁fitting	-12.0915
▁sane	-12.0916
ill	-12.0916
▁indoors	-12.0917
▁vitamins	-12.0917
▁scratches	-12.0918
▁factor	-12.0919
▁fashioned	-12.0919
▁coop	-12.0919
▁inform	-12.092
▁mustard	-12.0921
▁brighter	-12.0921
▁recognized	-12.0922
▁supp	-12.0923
▁momma	-12.0923
▁twist	-12.0924
▁overtime	-12.0926
▁risky	-12.0927
▁danger	-12.093
▁fighters	-12.093
▁scratcher	-12.0931
▁dresser	-12.0932
▁cartoons	-12.0933
▁precautions	-12.0933
▁traps	-12.0933
▁intended	-12.0937
▁bash	-12.0938
▁betrayed	-12.0939
▁pos	-12.0939
ors	-12.0939
▁jon	-12.0939
▁coins	-12.0941
▁commute	-12.0943
▁gathering	-12.0947
▁essentials	-12.0949
▁hamburgers	-12.0949
▁roses	-12.095
▁mistaken	-12.0953
▁lad	-12.0954
▁existed	-12.0954
▁dominate	-12.0955
▁cds	-12.0955
▁safer	-12.0956
▁professionally	-12.0957
▁speakers	-12.0957
▁useless	-12.0957
▁od	-12.0963
▁era	-12.0963
▁fruits	-12.0964
▁conditioning	-12.097
▁roomies	-12.0972
▁appears	-12.0972
▁burritos	-12.098
▁peppers	-12.098
▁zombies	-12.098
▁bab	-12.0986
▁notified	-12.0987
rnament	-12.0987
▁joint	-12.0988
▁standards	-12.0989
▁burning	-12.0989
▁pond	-12.0991
▁menu	-12.0996
▁snapp	-12.1017
▁checkup	-12.1018
▁bachelors	-12.102
▁generations	-12.102
▁strengths	-12.102
▁conditions	-12.102
wi	-12.1021
▁costly	-12.1029
▁products	-12.1034
▁disabilit	-12.1034
▁mari	-12.1039
ave	-12.104
▁layer	-12.1042
▁tuck	-12.1043
▁locally	-12.106
▁camper	-12.107
▁tacos	-12.1075
▁holes	-12.108
▁applications	-12.1083
▁testi	-12.1086
▁gains	-12.1099
▁clients	-12.1107
▁begins	-12.1108
▁pots	-12.1108
▁crimes	-12.1116
▁warming	-12.1123
▁butts	-12.113
▁steaks	-12.1132
▁positively	-12.1146
rk	-12.1152
▁cosign	-12.1163
▁dented	-12.1167
▁freely	-12.1175
▁smashing	-12.118
▁sleepy	-12.121
▁behaviors	-12.1212
▁inter	-12.1219
signed	-12.1224
▁scratching	-12.1227
▁spaces	-12.1228
▁trainer	-12.1228
ha	-12.1239
gi	-12.1239
ella	-12.1243
tha	-12.1246
▁spouses	-12.1253
par	-12.1255
▁dumps	-12.1258
▁bites	-12.1266
pping	-12.1269
▁damages	-12.1294
▁teas	-12.13
▁awards	-12.131
▁dentists	-12.1335
▁fails	-12.1336
▁notices	-12.1343
▁dispose	-12.1349
▁appointments	-12.1368
▁fe	-12.137
▁sleeps	-12.1376
mous	-12.1378
▁closely	-12.1382
lian	-12.1387
▁fend	-12.1395
▁hopeless	-12.1397
figured	-12.1406
▁sats	-12.1407
▁mines	-12.1418
▁systems	-12.1442
▁mich	-12.1442
▁rea	-12.1443
room	-12.1456
▁imagined	-12.1466
iness	-12.1492
ties	-12.1502
▁desir	-12.1506
ow	-12.151
▁mens	-12.1513
▁fires	-12.153
ious	-12.1543
▁snu	-12.1555
▁x	-12.1566
▁dies	-12.1645
▁vari	-12.1651
stic	-12.1654
▁gree	-12.1656
▁snuggl	-12.1672
▁pursue	-12.173
ney	-12.1745
▁ep	-12.1745
mit	-12.1775
▁pr	-12.1811
reme	-12.1814
cing	-12.1847
▁explor	-12.186
▁gee	-12.1866
▁pains	-12.1874
▁disc	-12.1884
ber	-12.1889
read	-12.1911
▁projects	-12.1919
mag	-12.1943
▁ven	-12.1958
▁shu	-12.1959
▁dodge	-12.1988
ier	-12.1995
▁simpl	-12.2012
tial	-12.2031
tant	-12.2037
▁cr	-12.2067
vo	-12.2072
min	-12.2089
▁worlds	-12.212
lot	-12.2128
gu	-12.2136
▁eater	-12.2141
set	-12.2148
▁occur	-12.2153
▁pranks	-12.2165
▁stu	-12.2166
ripping	-12.2169
▁orders	-12.22
ece	-12.2209
▁nab	-12.2222
▁swing	-12.2246
uer	-12.2251
▁imp	-12.2291
▁bor	-12.2304
ana	-12.2309
ab	-12.2313
ept	-12.2319
ament	-12.2333
▁exs	-12.2338
over	-12.2341
cent	-12.2381
▁bal	-12.2403
ca	-12.2414
▁bun	-12.242
▁contr	-12.2452
ell	-12.2478
ler	-12.248
ht	-12.2486
▁upgrad	-12.2504
tel	-12.2526
peed	-12.253
antic	-12.2541
illa	-12.2544
ailed	-12.2552
llish	-12.256
▁mud	-12.258
head	-12.2614
▁je	-12.2647
▁glo	-12.2706
▁sta	-12.2724
ities	-12.2729
▁gang	-12.2741
berry	-12.2757
nite	-12.2777
teen	-12.2812
▁curs	-12.2821
mes	-12.2835
logne	-12.2839
▁woo	-12.2842
▁blank	-12.2842
▁victim	-12.2845
▁rope	-12.2846
▁scout	-12.2846
▁lump	-12.2847
▁genetic	-12.285
▁minds	-12.285
▁noodle	-12.2852
▁topic	-12.2852
▁purchas	-12.2853
▁precaution	-12.2854
▁cartoon	-12.2855
▁trap	-12.2856
▁underdog	-12.2856
▁devil	-12.2857
▁grandparent	-12.2857
▁barefoot	-12.2865
▁flower	-12.2865
▁sup	-12.2868
▁threaten	-12.2869
▁dig	-12.2869
▁entertain	-12.287
▁fashion	-12.2871
plain	-12.2871
ranged	-12.2871
va	-12.2871
ought	-12.2872
▁nut	-12.2873
think	-12.2874
50	-12.2874
▁invit	-12.288
yard	-12.2881
luc	-12.2884
▁kiddo	-12.2886
▁promote	-12.2887
right	-12.2887
▁approve	-12.2887
power	-12.2887
wood	-12.2887
television	-12.2888
half	-12.2888
▁delay	-12.2888
▁wealth	-12.2891
▁injure	-12.2891
▁cuddl	-12.2892
▁pu	-12.2894
▁eve	-12.2896
▁financ	-12.2896
▁rom	-12.2896
iggling	-12.2897
▁chick	-12.2897
fortable	-12.2897
▁cigar	-12.2897
▁enroll	-12.2897
▁hazard	-12.2897
▁2017	-12.2897
▁ambulance	-12.2897
▁amsterdam	-12.2897
▁apprehension	-12.2897
▁asheville	-12.2897
▁associate	-12.2897
▁atmosphere	-12.2897
▁avatar	-12.2897
▁biopsy	-12.2897
▁bitcoin	-12.2897
▁blonde	-12.2897
▁broadway	-12.2897
▁carpool	-12.2897
▁cheerleading	-12.2897
▁chillax	-12.2897
▁cliff	-12.2897
▁clutter	-12.2897
▁convenience	-12.2897
▁converse	-12.2897
▁critical	-12.2897
▁curfew	-12.2897
▁deceased	-12.2897
▁earthquake	-12.2897
▁elected	-12.2897
▁elements	-12.2897
▁elvis	-12.2897
▁employment	-12.2897
▁endeavor	-12.2897
▁fainted	-12.2897
▁forecast	-12.2897
▁galaxy	-12.2897
▁gamecube	-12.2897
▁genre	-12.2897
▁homesick	-12.2897
▁hulu	-12.2897
▁infinity	-12.2897
▁instagram	-12.2897
▁journal	-12.2897
▁kangaroo	-12.2897
▁lanai	-12.2897
▁leadership	-12.2897
▁lyrics	-12.2897
▁magazine	-12.2897
▁meanwhile	-12.2897
▁metallica	-12.2897
▁moderation	-12.2897
▁nba	-12.2897
▁obedience	-12.2897
▁orchestra	-12.2897
▁overflow	-12.2897
▁persistent	-12.2897
▁possibility	-12.2897
▁predicament	-12.2897
▁qualities	-12.2897
▁relieving	-12.2897
▁resume	-12.2897
▁scotland	-12.2897
▁shredded	-12.2897
▁snapchat	-12.2897
▁splurge	-12.2897
▁stoop	-12.2897
▁stretch	-12.2897
▁sufficient	-12.2897
▁supercopa	-12.2897
▁terror	-12.2897
▁traumatizing	-12.2897
▁trophies	-12.2897
▁tweet	-12.2897
▁tyke	-12.2897
▁unicycle	-12.2897
▁unnerving	-12.2897
▁valentine	-12.2897
▁vulnerable	-12.2897
▁wifi	-12.2897
▁windshield	-12.2897
▁zelda	-12.2897
▁autonom	-12.2897
▁cricket	-12.2897
▁decorations	-12.2897
▁dvd	-12.2897
▁geometry	-12.2897
▁grandchild	-12.2897
▁jeez	-12.2897
▁judging	-12.2897
▁method	-12.2897
▁recharge	-12.2897
▁vietnam	-12.2897
▁austin	-12.2897
▁prettiest	-12.2897
▁ramsey	-12.2897
▁reddit	-12.2897
▁companionship	-12.2897
▁defeat	-12.2897
▁narrow	-12.2897
▁scienti	-12.2897
▁twinkie	-12.2897
▁neuro	-12.2897
▁interfere	-12.2897
▁outstanding	-12.2897
▁section	-12.2897
▁sequel	-12.2897
▁granddaughter	-12.2897
▁integrity	-12.2897
▁landscape	-12.2897
▁chevy	-12.2897
▁superior	-12.2897
▁horrid	-12.2897
▁membership	-12.2897
▁scrapbook	-12.2897
▁brief	-12.2897
▁disown	-12.2897
▁sweatshop	-12.2897
▁identity	-12.2897
▁roster	-12.2897
▁lamp	-12.2897
▁absence	-12.2897
▁confusing	-12.2897
▁hulk	-12.2897
▁pajama	-12.2897
▁whiske	-12.2897
▁filter	-12.2897
▁wildfire	-12.2897
▁formula	-12.2897
▁reserve	-12.2897
▁hershey	-12.2898
▁trivia	-12.2898
▁brick	-12.2898
▁argentina	-12.2898
▁leather	-12.2898
▁martial	-12.2898
▁flunk	-12.2898
▁permit	-12.2898
▁youthful	-12.2898
▁chart	-12.2898
▁programming	-12.2898
▁eeri	-12.2898
▁generator	-12.2898
▁monkey	-12.2898
▁suggestions	-12.2898
▁bartender	-12.2898
▁terrier	-12.2898
▁buff	-12.2898
▁attachment	-12.2898
▁kara	-12.2898
▁fought	-12.2898
▁moist	-12.2898
▁survival	-12.2898
▁seattle	-12.2898
▁announcement	-12.2898
▁foul	-12.2898
▁bride	-12.2898
▁entertainment	-12.2898
▁bold	-12.2898
▁retro	-12.2898
▁hoarder	-12.2898
▁humor	-12.2898
▁overeat	-12.2898
▁twenties	-12.2899
▁obstacle	-12.2899
▁invitation	-12.2899
▁penny	-12.2899
▁repairman	-12.2899
▁scenery	-12.2899
▁bday	-12.2899
rified	-12.2899
▁categor	-12.2899
▁courageous	-12.2899
▁bargain	-12.2899
▁lunchbox	-12.2899
▁advisor	-12.2899
▁grudge	-12.2899
▁sync	-12.2899
▁surface	-12.2899
▁joking	-12.2899
▁rusty	-12.2899
▁kfc	-12.2899
▁mule	-12.2899
▁stopping	-12.2899
▁anime	-12.2899
▁prime	-12.2899
▁wagon	-12.2899
▁foolish	-12.2899
▁strawberry	-12.2899
▁bait	-12.2899
▁psycho	-12.29
▁substan	-12.29
▁bullies	-12.29
▁pathetic	-12.29
light	-12.29
▁development	-12.29
▁groom	-12.2901
▁harvey	-12.2901
▁motivating	-12.2901
▁exhausted	-12.2901
ngue	-12.2901
▁flute	-12.2901
▁wooden	-12.2901
▁65	-12.2901
▁hous	-12.2901
▁produce	-12.2902
lypse	-12.2902
▁scarf	-12.2902
▁earrings	-12.2903
▁resources	-12.2903
▁seagulls	-12.2903
ane	-12.2903
▁specialist	-12.2903
▁cit	-12.2903
▁flashback	-12.2904
▁vividly	-12.2904
▁hairball	-12.2904
▁playground	-12.2904
▁hyper	-12.2904
▁chili	-12.2905
▁factory	-12.2905
▁apoc	-12.2905
▁legit	-12.2905
▁adjustment	-12.2905
▁doctorate	-12.2906
▁spine	-12.2906
▁dew	-12.2906
▁floating	-12.2906
▁diver	-12.2906
▁deny	-12.2906
▁ops	-12.2906
▁gramma	-12.2907
▁stash	-12.2907
▁tray	-12.2907
▁abduction	-12.2908
▁admir	-12.2908
▁ache	-12.2909
▁petty	-12.2909
▁kisses	-12.2909
▁nightlight	-12.291
▁taller	-12.2911
▁cloths	-12.2912
▁dryer	-12.2912
▁housework	-12.2912
▁balloons	-12.2912
▁calories	-12.2912
▁doomed	-12.2912
▁burnt	-12.2913
▁tornadoes	-12.2914
▁chees	-12.2914
▁rod	-12.2914
▁bay	-12.2915
▁chunk	-12.2915
▁cod	-12.2915
▁sack	-12.2916
▁spite	-12.2916
▁idk	-12.2917
▁exceptional	-12.2917
▁pun	-12.2919
▁themself	-12.292
▁fuss	-12.2921
lerate	-12.2922
▁cuss	-12.2923
▁thi	-12.2926
ok	-12.2926
dator	-12.2927
▁bonuses	-12.2927
▁pills	-12.2929
▁blinker	-12.2929
▁rodeo	-12.2931
▁politicians	-12.2932
au	-12.2932
alysis	-12.2934
ka	-12.2935
▁virtual	-12.2937
nesse	-12.2939
▁tur	-12.294
▁gagg	-12.2941
▁devils	-12.2941
▁burglar	-12.2942
▁connected	-12.2943
ington	-12.2944
▁core	-12.2949
▁cigarettes	-12.2951
▁provided	-12.2951
▁connections	-12.2951
ifying	-12.2952
▁pressed	-12.2952
▁messes	-12.2952
▁drawers	-12.2954
cre	-12.2954
▁pitt	-12.2956
▁stares	-12.2956
▁conce	-12.2958
▁pipe	-12.296
▁ideal	-12.296
▁prayers	-12.296
▁stings	-12.296
▁medi	-12.2961
▁melted	-12.2961
▁instincts	-12.2961
inste	-12.2963
▁jes	-12.2965
▁tablet	-12.2967
▁sadness	-12.2969
▁chow	-12.297
ory	-12.2972
▁bass	-12.2974
kind	-12.2975
▁economics	-12.2981
▁uniforms	-12.2981
▁comments	-12.2981
▁sized	-12.2982
▁loser	-12.2986
▁fr	-12.2986
▁upgrades	-12.2988
▁sympath	-12.2989
▁hills	-12.2991
▁recommended	-12.2991
▁tied	-12.2995
▁pest	-12.2996
rais	-12.2997
▁whew	-12.2997
▁endless	-12.3003
▁crazies	-12.3005
▁tearing	-12.3006
▁wrapp	-12.3009
▁traditions	-12.301
sage	-12.3012
hold	-12.3026
▁hunter	-12.3027
▁barn	-12.3027
▁official	-12.3038
▁bulls	-12.3042
▁cleans	-12.3043
mb	-12.3053
▁bonding	-12.3058
▁ward	-12.3059
▁chefs	-12.306
▁rank	-12.3078
ily	-12.3084
▁radiat	-12.3085
▁limits	-12.309
yes	-12.3093
▁turtles	-12.3099
cuba	-12.3105
▁sprayed	-12.3126
▁females	-12.3129
▁cherished	-12.3138
▁casinos	-12.3139
▁texts	-12.314
▁stall	-12.3148
▁scrape	-12.3149
▁batch	-12.3158
▁landing	-12.3159
ized	-12.3167
▁happie	-12.3168
▁eb	-12.3168
▁chats	-12.3179
▁worthy	-12.3182
especially	-12.3197
▁parm	-12.3197
mature	-12.3199
▁earns	-12.3199
fer	-12.3214
▁struggles	-12.3219
▁stocks	-12.3221
▁ser	-12.3224
▁cho	-12.3231
▁blocks	-12.324
rant	-12.3247
▁accomplishments	-12.325
mashed	-12.3251
▁sc	-12.3276
▁schoolarships	-12.328
ker	-12.3288
▁promotions	-12.3289
lated	-12.3296
▁boards	-12.33
cy	-12.33
▁cha	-12.3315
▁sox	-12.3322
▁guns	-12.3323
▁fac	-12.3328
▁facts	-12.3362
uring	-12.3381
▁regrett	-12.3387
▁boats	-12.3392
▁pairs	-12.3403
▁toss	-12.3417
▁rocks	-12.3423
▁contra	-12.3443
▁listens	-12.3479
ments	-12.3501
▁trains	-12.3501
full	-12.3506
uck	-12.3507
▁laughs	-12.3518
▁floors	-12.3527
lt	-12.3529
dy	-12.3534
ars	-12.3538
▁partying	-12.3545
bi	-12.3546
▁palm	-12.3551
fic	-12.3554
▁showers	-12.3554
▁hav	-12.3556
▁chocolates	-12.3569
ace	-12.3575
▁relocate	-12.3577
▁abs	-12.3584
▁occurre	-12.3594
pg	-12.3608
▁tailgate	-12.361
▁tourist	-12.3616
sa	-12.362
▁jumps	-12.3663
▁bounc	-12.3666
▁mor	-12.3673
▁wage	-12.3684
▁um	-12.3696
▁graduates	-12.3698
▁astonish	-12.3711
▁hor	-12.3748
▁stitche	-12.3751
▁99	-12.3761
▁doo	-12.3775
thing	-12.3776
▁pil	-12.3782
tres	-12.3787
bble	-12.3788
▁scaredy	-12.3789
ans	-12.3797
sm	-12.3857
▁blam	-12.3862
tro	-12.3864
▁browse	-12.3877
cs	-12.3879
ade	-12.391
▁hairs	-12.391
order	-12.3944
▁facil	-12.3966
▁escap	-12.3973
▁homes	-12.3998
ey	-12.4045
▁boxer	-12.4051
▁greatly	-12.4059
ches	-12.4061
nic	-12.4092
nia	-12.4095
▁scale	-12.412
▁nei	-12.4135
▁ka	-12.4137
▁weddings	-12.4143
▁prod	-12.415
ual	-12.4152
▁gar	-12.4172
dc	-12.4183
▁canal	-12.4214
▁bl	-12.4237
ack	-12.4269
▁portabl	-12.4274
▁cooker	-12.4281
wed	-12.4304
etic	-12.4317
nder	-12.4331
▁su	-12.4336
les	-12.4347
aring	-12.435
▁sip	-12.4397
2	-12.4399
▁wit	-12.4402
▁dripp	-12.4405
▁heads	-12.4406
▁whi	-12.4414
▁fate	-12.4423
▁hiv	-12.4445
mate	-12.4448
▁gl	-12.4487
▁ab	-12.451
▁wen	-12.4512
ru	-12.4537
▁net	-12.4571
nk	-12.4581
mph	-12.4587
ently	-12.459
▁ours	-12.4608
▁ju	-12.4618
rg	-12.4639
ppy	-12.4652
▁believ	-12.4653
▁tow	-12.4665
arded	-12.4671
▁chu	-12.4672
ggy	-12.4675
25	-12.4694
▁foodie	-12.4702
▁bees	-12.4705
io	-12.4713
ral	-12.4719
▁chi	-12.4721
▁raises	-12.4722
mina	-12.4735
yu	-12.4762
▁hesitate	-12.4769
▁obs	-12.4772
self	-12.4779
▁doc	-12.4796
▁luc	-12.4878
▁linger	-12.4893
tri	-12.4907
▁freeze	-12.4921
▁piss	-12.4925
▁br	-12.4938
▁pres	-12.498
ards	-12.4984
lb	-12.4999
pp	-12.5011
▁dim	-12.5013
▁rep	-12.5014
▁mic	-12.5015
▁sever	-12.5021
die	-12.5023
ured	-12.5028
▁29	-12.5043
▁knit	-12.5079
▁ye	-12.5084
gies	-12.5089
▁stare	-12.5104
▁deb	-12.513
hard	-12.5138
▁ramb	-12.5151
▁appl	-12.5163
table	-12.5166
esh	-12.5167
▁reduc	-12.5188
orted	-12.5217
coon	-12.5231
▁include	-12.5268
▁sweets	-12.528
end	-12.5282
ern	-12.529
ium	-12.5291
▁rad	-12.5293
▁fla	-12.5297
ched	-12.53
▁commut	-12.5326
▁blink	-12.5327
▁vent	-12.5328
▁distress	-12.5337
▁loos	-12.5341
▁john	-12.5345
▁peanut	-12.5345
▁chapter	-12.5346
od	-12.5346
▁convention	-12.535
▁legend	-12.5351
ain	-12.5352
▁technique	-12.5352
▁videogame	-12.5352
▁cabinet	-12.5353
▁consist	-12.5354
▁politician	-12.5355
▁squirrel	-12.5355
▁studio	-12.5355
▁assignment	-12.5355
▁nugget	-12.5356
▁reservation	-12.5356
▁critter	-12.5356
▁olympic	-12.5356
▁vegetable	-12.5356
▁cracker	-12.5359
▁chore	-12.536
▁exp	-12.5361
▁opera	-12.5364
▁bone	-12.5365
▁clic	-12.5367
▁leftover	-12.5367
▁foo	-12.5367
▁snowboard	-12.537
board	-12.537
▁fascinat	-12.5371
cue	-12.5372
▁screw	-12.5372
▁tick	-12.5372
▁insist	-12.5373
ju	-12.5373
▁haunt	-12.5373
▁mole	-12.5373
ice	-12.5374
▁tim	-12.5375
▁plug	-12.5379
▁veg	-12.5383
▁spec	-12.5383
▁abduct	-12.5384
▁demo	-12.5384
box	-12.5385
▁shove	-12.5385
▁inspect	-12.5386
▁determine	-12.5386
40	-12.5386
▁engage	-12.5386
▁calculat	-12.5387
▁trim	-12.5388
hood	-12.5388
year	-12.5388
▁fulfil	-12.5388
16	-12.5388
wanted	-12.5388
▁decline	-12.5388
▁practical	-12.5389
▁vivid	-12.539
▁immediate	-12.539
▁elder	-12.539
▁eg	-12.5391
▁assembl	-12.5392
▁positiv	-12.5392
law	-12.5392
aught	-12.5392
▁gossip	-12.5392
lucky	-12.5392
▁contribut	-12.5392
▁royal	-12.5393
were	-12.5393
▁stan	-12.5393
▁miserabl	-12.5393
▁numb	-12.5394
▁opt	-12.5395
▁evaluat	-12.5395
▁alternat	-12.5396
now	-12.5397
▁threat	-12.5397
▁resent	-12.5397
▁detect	-12.5397
▁uncertain	-12.5397
▁auth	-12.5397
▁pour	-12.5397
ugar	-12.5397
▁troll	-12.5397
▁straw	-12.5397
unctio	-12.5397
▁lambo	-12.5397
▁immens	-12.5397
▁parachut	-12.5397
▁proceed	-12.5397
gestion	-12.5397
▁2011	-12.5397
▁27	-12.5397
▁alzheimers	-12.5397
▁assertive	-12.5397
▁attorney	-12.5397
▁axolotls	-12.5397
▁baffled	-12.5397
▁bambi	-12.5397
▁baptis	-12.5397
▁barbados	-12.5397
▁bathtub	-12.5397
▁beneficial	-12.5397
▁bizarre	-12.5397
▁bliss	-12.5397
▁bouquet	-12.5397
▁cactus	-12.5397
▁caffeine	-12.5397
▁capital	-12.5397
▁carolina	-12.5397
▁cartwheel	-12.5397
▁charlotte	-12.5397
▁clingy	-12.5397
▁compensate	-12.5397
▁compensation	-12.5397
▁confidant	-12.5397
▁context	-12.5397
▁cremation	-12.5397
▁cruising	-12.5397
▁demise	-12.5397
▁deployment	-12.5397
▁deserving	-12.5397
▁doritos	-12.5397
▁earthworm	-12.5397
▁easiest	-12.5397
▁eclipse	-12.5397
▁educated	-12.5397
▁efficient	-12.5397
▁emerald	-12.5397
▁escargot	-12.5397
▁estimate	-12.5397
▁experiencing	-12.5397
▁explanation	-12.5397
▁frugal	-12.5397
▁genuine	-12.5397
▁grief	-12.5397
▁guacamole	-12.5397
▁hammock	-12.5397
▁horrific	-12.5397
▁impromptu	-12.5397
▁inclined	-12.5397
▁inevitabl	-12.5397
▁intersection	-12.5397
▁iraq	-12.5397
▁irritable	-12.5397
▁kansas	-12.5397
▁labrador	-12.5397
▁launch	-12.5397
▁lipstick	-12.5397
▁liquor	-12.5397
▁malicious	-12.5397
▁malnourished	-12.5397
▁manhattan	-12.5397
▁manifest	-12.5397
▁martin	-12.5397
▁metabolism	-12.5397
▁missouri	-12.5397
▁moderate	-12.5397
▁mourn	-12.5397
▁multiplayer	-12.5397
▁mvp	-12.5397
▁neutral	-12.5397
▁nhl	-12.5397
▁nightgown	-12.5397
▁nonstop	-12.5397
▁ostrich	-12.5397
▁overindulge	-12.5397
▁paradise	-12.5397
▁philadelphia	-12.5397
▁philippines	-12.5397
▁philosophy	-12.5397
▁phrase	-12.5397
▁pianist	-12.5397
▁prestigious	-12.5397
▁productivity	-12.5397
▁reboot	-12.5397
▁reckless	-12.5397
▁regain	-12.5397
▁rehearse	-12.5397
▁resolution	-12.5397
▁rugrats	-12.5397
▁scott	-12.5397
▁seduc	-12.5397
▁separation	-12.5397
▁skeptical	-12.5397
▁solitude	-12.5397
▁statue	-12.5397
▁statuette	-12.5397
▁stranded	-12.5397
▁sturgis	-12.5397
▁telemark	-12.5397
▁temporarily	-12.5397
▁thirsty	-12.5397
▁thrive	-12.5397
▁trepidatio	-12.5397
▁turmoil	-12.5397
▁unbreakable	-12.5397
▁unicorn	-12.5397
▁urinat	-12.5397
▁vampire	-12.5397
▁vinegar	-12.5397
▁waterpark	-12.5397
▁whatsoever	-12.5397
▁worthwhile	-12.5397
▁btw	-12.5397
▁communities	-12.5397
▁convincing	-12.5397
▁cubicle	-12.5397
▁diploma	-12.5397
▁lunatic	-12.5397
▁pigeon	-12.5397
▁silverfish	-12.5397
▁tahiti	-12.5397
▁torture	-12.5397
fertil	-12.5397
▁apologizing	-12.5397
▁assault	-12.5397
▁corrupt	-12.5397
▁hairstyle	-12.5397
▁isolating	-12.5397
▁oyster	-12.5397
▁recession	-12.5397
▁shepherd	-12.5397
▁spaniel	-12.5397
▁wrestle	-12.5397
▁pamper	-12.5397
▁delicate	-12.5397
▁fiction	-12.5397
▁homeowner	-12.5397
▁brisket	-12.5397
▁frown	-12.5397
▁visual	-12.5397
▁fungus	-12.5397
▁raptor	-12.5397
▁violinist	-12.5397
▁enthusiastic	-12.5397
▁grandchildren	-12.5397
▁plummet	-12.5397
▁sparring	-12.5397
▁surpasse	-12.5397
▁bodybuild	-12.5397
▁curb	-12.5397
▁knives	-12.5397
▁nastiness	-12.5397
▁trading	-12.5397
▁georgia	-12.5397
▁basket	-12.5397
▁granny	-12.5397
▁meteor	-12.5397
▁shallow	-12.5397
▁starfish	-12.5397
▁princess	-12.5397
▁spaceship	-12.5397
▁affectionate	-12.5397
▁cellphone	-12.5397
▁procrastination	-12.5397
▁luxurious	-12.5398
▁ebay	-12.5398
▁russell	-12.5398
assic	-12.5398
▁article	-12.5398
▁insulin	-12.5398
▁surp	-12.5398
▁admission	-12.5398
▁motorist	-12.5398
▁remorseful	-12.5398
▁disorder	-12.5398
▁airairbnb	-12.5398
▁entry	-12.5398
▁surgeon	-12.5398
▁fright	-12.5398
▁priest	-12.5398
▁obama	-12.5398
▁crystal	-12.5398
▁horizon	-12.5398
▁void	-12.5398
▁bloated	-12.5398
▁buddies	-12.5398
▁notebook	-12.5398
▁chris	-12.5398
▁compassionate	-12.5398
▁assistant	-12.5398
▁disgraceful	-12.5398
▁crib	-12.5398
▁luther	-12.5398
▁smoothie	-12.5398
▁tiring	-12.5398
▁utter	-12.5398
▁kha	-12.5398
▁steel	-12.5398
▁adulthood	-12.5398
▁collage	-12.5398
▁river	-12.5398
▁cheeseburger	-12.5398
▁villain	-12.5398
▁spur	-12.5398
▁native	-12.5398
▁rewind	-12.5398
▁comfortably	-12.5398
▁elated	-12.5398
▁confrontational	-12.5398
▁engagement	-12.5398
▁condo	-12.5398
▁gutted	-12.5398
▁scalp	-12.5398
robe	-12.5398
▁recking	-12.5398
▁effective	-12.5398
▁jeopardy	-12.5398
▁powerlift	-12.5398
▁tragedy	-12.5398
▁victory	-12.5398
▁crust	-12.5398
▁eric	-12.5398
ronic	-12.5398
▁restart	-12.5398
▁coca	-12.5398
▁fluffy	-12.5398
▁busier	-12.5398
▁creation	-12.5398
▁goldie	-12.5399
▁cruelty	-12.5399
▁funnier	-12.5399
▁unfold	-12.5399
▁camry	-12.5399
▁urgent	-12.5399
▁apology	-12.5399
▁2008	-12.5399
▁ordinary	-12.5399
▁jazz	-12.5399
▁mass	-12.5399
▁unnoticed	-12.5399
agle	-12.5399
▁delighted	-12.5399
▁remake	-12.5399
▁barney	-12.5399
▁headlight	-12.5399
▁bff	-12.5399
▁reflection	-12.5399
▁stunt	-12.54
▁panel	-12.54
▁maid	-12.54
▁shutter	-12.54
▁shipment	-12.54
▁embrac	-12.54
▁cola	-12.5401
▁payoff	-12.5401
▁debate	-12.5401
▁rot	-12.5401
▁tamp	-12.5401
▁attendance	-12.5401
▁undermin	-12.5401
▁weakness	-12.5401
▁acid	-12.5401
▁travelled	-12.5401
▁autograph	-12.5402
▁typing	-12.5402
▁yrs	-12.5402
▁scoring	-12.5402
▁suspended	-12.5402
▁campus	-12.5402
▁nominated	-12.5402
▁territor	-12.5402
ummies	-12.5402
▁seniority	-12.5402
▁2500	-12.5402
▁relevan	-12.5402
▁quarterback	-12.5402
▁accurate	-12.5402
▁interaction	-12.5402
▁approval	-12.5402
▁consideration	-12.5402
aunting	-12.5403
ntage	-12.5403
▁quad	-12.5403
▁fess	-12.5403
talking	-12.5403
▁baker	-12.5403
▁proof	-12.5403
▁swarm	-12.5404
▁lip	-12.5404
▁offensive	-12.5404
▁sitter	-12.5404
▁programme	-12.5404
▁cramm	-12.5405
▁genes	-12.5405
▁antibiotics	-12.5405
▁infomercials	-12.5405
▁previews	-12.5405
▁suburbs	-12.5405
▁disagreement	-12.5405
▁posters	-12.5405
▁jitsu	-12.5405
▁36	-12.5406
▁renovation	-12.5406
▁polar	-12.5406
▁retrac	-12.5406
▁brady	-12.5406
▁located	-12.5406
▁braver	-12.5406
unnies	-12.5406
▁eu	-12.5406
this	-12.5406
▁backfire	-12.5407
▁utili	-12.5407
▁diner	-12.5407
▁coordinated	-12.5407
▁backwards	-12.5407
hero	-12.5408
▁combo	-12.5408
▁55	-12.5408
▁germany	-12.5408
▁inspection	-12.5409
▁billion	-12.541
▁soaked	-12.541
▁hom	-12.541
tchy	-12.541
▁attraction	-12.541
lift	-12.541
▁unlikely	-12.541
▁hah	-12.5411
▁acceptable	-12.5411
▁mph	-12.5411
▁trimm	-12.5411
▁demon	-12.5412
▁overboard	-12.5413
▁bind	-12.5413
▁rover	-12.5413
dog	-12.5415
▁pier	-12.5415
▁hailing	-12.5416
▁contentment	-12.5416
▁bour	-12.5416
▁streaming	-12.5417
▁hoa	-12.5417
▁pancakes	-12.5417
▁preferences	-12.5417
▁vaccines	-12.5417
▁cupboards	-12.5417
▁disconnected	-12.5417
▁unpacked	-12.5417
▁sme	-12.5417
▁fulfilled	-12.5418
▁dy	-12.5418
▁props	-12.5418
▁anyhow	-12.5419
▁arti	-12.542
njur	-12.5421
▁dial	-12.5421
▁bin	-12.5421
▁waiter	-12.5421
▁bestfriend	-12.5422
▁customize	-12.5422
▁awh	-12.5423
your	-12.5423
▁fascinating	-12.5424
▁rumor	-12.5425
▁31	-12.5425
eye	-12.5427
▁circles	-12.543
▁entertaining	-12.5432
▁pitchers	-12.5432
▁cents	-12.5433
▁introverted	-12.5435
▁teaches	-12.5436
▁quicker	-12.5437
▁complet	-12.5437
agen	-12.5437
▁flaked	-12.5438
▁saver	-12.5438
▁severely	-12.5439
▁seller	-12.544
▁reminisced	-12.5441
▁rental	-12.5441
▁techniques	-12.5443
▁videogames	-12.5443
▁cabinets	-12.5443
sque	-12.5448
▁leaked	-12.5449
▁wisely	-12.545
▁policeman	-12.545
▁discovery	-12.5451
▁reps	-12.5452
▁fift	-12.5453
▁pipes	-12.5455
▁addicting	-12.5455
▁noodles	-12.5456
▁fixes	-12.5461
▁carton	-12.5462
▁ger	-12.5464
▁indi	-12.5466
▁possums	-12.5468
▁commands	-12.5468
▁frogs	-12.5468
▁smoked	-12.5468
▁soap	-12.547
▁manual	-12.5475
▁inclusive	-12.5476
▁peacefully	-12.5477
▁exes	-12.5478
▁steer	-12.5479
▁fullest	-12.5479
▁pushy	-12.5479
▁skates	-12.5481
▁desserts	-12.5481
▁dash	-12.5483
▁excite	-12.5483
▁los	-12.5485
▁behold	-12.5488
ase	-12.5488
▁disappeared	-12.549
▁ferre	-12.549
▁funding	-12.5492
place	-12.5494
▁bask	-12.5494
▁welcomed	-12.5494
▁towels	-12.5494
▁gradual	-12.5502
▁details	-12.5507
▁sweethearts	-12.5507
▁winners	-12.5507
▁backups	-12.5509
▁smarter	-12.551
▁televisions	-12.5511
▁bon	-12.5517
▁ankles	-12.552
edition	-12.5532
▁responding	-12.5533
▁crafts	-12.5533
▁weapons	-12.5533
▁websites	-12.5533
▁definit	-12.5537
▁corrected	-12.5538
iding	-12.5538
nail	-12.5538
▁brighten	-12.5541
▁coping	-12.5546
▁lungs	-12.5546
▁muscles	-12.5546
▁literat	-12.5551
▁easter	-12.5555
▁jacks	-12.5559
▁wounds	-12.5559
▁discounts	-12.5559
▁goof	-12.5561
▁strippe	-12.5566
▁athletics	-12.5572
▁belts	-12.5572
▁hunger	-12.5575
lings	-12.5576
▁loaded	-12.5578
▁sweater	-12.5579
▁exc	-12.558
▁companions	-12.5585
▁slides	-12.5587
ride	-12.5596
▁bedtime	-12.5597
some	-12.5598
▁sauces	-12.5599
tter	-12.5603
▁gord	-12.5609
▁teething	-12.561
▁tshirts	-12.5612
▁slacker	-12.5615
ola	-12.5618
lets	-12.5619
▁deed	-12.5623
old	-12.5625
▁rewards	-12.5626
mar	-12.5627
▁chee	-12.5637
▁mechanics	-12.5638
▁ants	-12.564
▁danced	-12.5643
▁spirits	-12.5651
▁rabbits	-12.5651
▁poot	-12.5652
▁issued	-12.5661
▁brains	-12.5665
▁passions	-12.567
▁kidnapp	-12.5672
▁sympathiz	-12.5676
dys	-12.5678
▁spl	-12.5678
▁airplanes	-12.5678
que	-12.5683
ender	-12.5691
▁salads	-12.5691
▁hoop	-12.5695
▁bombs	-12.5696
ots	-12.57
▁bumps	-12.5702
▁ruining	-12.5705
▁flam	-12.5706
nea	-12.5708
▁cast	-12.571
▁explaining	-12.5712
▁beautifully	-12.5717
▁excuses	-12.5718
▁shootings	-12.5718
ative	-12.572
eager	-12.5721
▁entirely	-12.5727
▁cells	-12.5731
▁twi	-12.5737
▁speeds	-12.5745
▁luci	-12.5748
▁sm	-12.5748
▁risks	-12.5771
▁accounts	-12.5772
▁dys	-12.5774
ssy	-12.5775
▁honored	-12.5783
chased	-12.5784
ette	-12.5795
▁dramas	-12.5798
▁advantages	-12.5798
pr	-12.5801
▁values	-12.5811
uly	-12.5817
▁kee	-12.583
▁arrives	-12.5839
▁towed	-12.5845
▁dances	-12.5861
▁flee	-12.5863
▁pupp	-12.5871
▁jud	-12.5871
▁terrifie	-12.5872
▁makeover	-12.588
▁link	-12.5888
car	-12.5896
taking	-12.5897
▁invites	-12.5909
lar	-12.5927
▁rescues	-12.5934
▁cor	-12.5936
gun	-12.594
▁fare	-12.5948
itation	-12.5964
ft	-12.5979
▁izzy	-12.5979
▁crapp	-12.5983
▁drops	-12.6002
▁carpets	-12.6015
▁covering	-12.6017
▁balls	-12.6021
▁bio	-12.6022
▁panick	-12.6031
▁ki	-12.6039
▁scu	-12.6044
mingly	-12.6053
zy	-12.6054
▁shipp	-12.6072
▁kn	-12.6079
closure	-12.6086
▁blur	-12.6089
400	-12.611
ound	-12.6111
▁sticks	-12.6112
▁sells	-12.6128
▁dents	-12.6132
▁eliminat	-12.6141
▁planes	-12.6148
▁vets	-12.6154
▁stunn	-12.6163
more	-12.6186
▁199	-12.619
▁slee	-12.6192
working	-12.6197
▁pok	-12.6207
for	-12.6237
nb	-12.6253
▁terrifi	-12.6257
▁endure	-12.6265
▁reassur	-12.6293
▁deaths	-12.6338
▁competitions	-12.6338
▁trashed	-12.6339
tal	-12.6354
▁amazingly	-12.6357
eans	-12.6364
▁den	-12.6407
▁gru	-12.6419
ternal	-12.6422
tified	-12.6428
wil	-12.6437
▁cheater	-12.6441
▁pers	-12.6446
eling	-12.6453
▁resting	-12.6456
▁dreaming	-12.6471
vice	-12.6491
lee	-12.651
▁pill	-12.6514
▁tr	-12.6534
▁shin	-12.654
nner	-12.6543
ely	-12.6554
▁procrastinate	-12.6554
▁cancell	-12.6571
amic	-12.6634
▁yearn	-12.6653
ens	-12.6673
▁creams	-12.6673
▁drunks	-12.6673
▁arrange	-12.6676
rr	-12.6684
▁ranger	-12.6686
▁strap	-12.6697
lity	-12.6741
▁port	-12.6774
▁detr	-12.6786
oc	-12.6787
ping	-12.6808
▁primar	-12.6818
▁offers	-12.684
30	-12.6852
▁wasps	-12.6859
competent	-12.6889
evious	-12.6909
lash	-12.694
▁rap	-12.6977
hat	-12.6992
ision	-12.6994
per	-12.7003
ability	-12.7027
laying	-12.7083
▁tre	-12.7109
▁seasoning	-12.7127
▁battl	-12.7163
▁unr	-12.7166
▁memoriz	-12.7168
▁ei	-12.7195
▁wal	-12.7212
tention	-12.7241
▁carb	-12.725
▁vo	-12.7279
▁digest	-12.7295
lk	-12.7298
ock	-12.7299
▁stands	-12.7302
▁sounding	-12.734
▁ble	-12.7356
ming	-12.7358
ient	-12.7359
▁vis	-12.7385
▁sau	-12.739
▁stone	-12.7392
▁hum	-12.7399
▁fen	-12.7444
ox	-12.7456
av	-12.7475
appy	-12.7506
lize	-12.7517
llar	-12.7522
imp	-12.7531
istic	-12.7564
▁fu	-12.7575
▁insecurit	-12.7584
ngers	-12.7587
▁fro	-12.7597
cially	-12.7647
▁guid	-12.7649
▁swo	-12.7685
rok	-12.7702
fe	-12.7713
rolla	-12.7726
▁gener	-12.7749
bed	-12.7762
acy	-12.7809
▁rev	-12.7811
ight	-12.782
oul	-12.7841
20	-12.7846
▁happ	-12.786
▁ret	-12.7864
▁positives	-12.79
▁eno	-12.7918
▁cent	-12.793
zzy	-12.7977
alled	-12.7985
▁creepie	-12.7996
ld	-12.7997
hether	-12.7999
▁yu	-12.8004
mbled	-12.804
▁swat	-12.8103
tation	-12.8112
tube	-12.8124
15	-12.8143
cha	-12.8145
▁criticiz	-12.8151
▁sam	-12.8166
▁col	-12.8171
mmun	-12.8193
▁tin	-12.8217
owing	-12.8219
▁furr	-12.8232
heard	-12.8265
▁hone	-12.8279
ai	-12.8292
school	-12.8297
ttle	-12.8299
▁cra	-12.8317
bon	-12.8322
▁kra	-12.8326
▁plac	-12.8341
▁brew	-12.8349
▁licens	-12.835
bal	-12.8351
▁advanc	-12.8357
po	-12.8357
eries	-12.8415
tress	-12.8429
ina	-12.8441
▁sens	-12.8447
ntly	-12.8453
live	-12.8453
▁rider	-12.8454
itis	-12.8462
round	-12.8475
▁strip	-12.8476
ten	-12.8498
tra	-12.8511
bil	-12.8513
▁submit	-12.8515
▁nerv	-12.8528
ously	-12.854
▁ppl	-12.8545
▁sna	-12.8554
heating	-12.8557
kin	-12.856
▁rig	-12.8563
door	-12.8567
▁blu	-12.8579
za	-12.8591
cked	-12.8596
other	-12.8612
▁32	-12.8616
form	-12.8617
times	-12.8618
▁nause	-12.8634
▁diagno	-12.8647
get	-12.8648
ork	-12.8657
▁fli	-12.866
itated	-12.8666
gger	-12.8669
aut	-12.867
homa	-12.867
▁explo	-12.867
▁tra	-12.8671
book	-12.8671
▁fil	-12.8672
▁ja	-12.8673
▁participat	-12.8673
▁disconnect	-12.8675
▁unpack	-12.8678
▁elephant	-12.8679
▁gadget	-12.8679
clusive	-12.8679
▁representative	-12.8679
▁scammer	-12.8681
▁frighten	-12.8682
pl	-12.8683
▁prospect	-12.8684
▁relation	-12.8684
▁glove	-12.8685
▁circle	-12.8686
▁vitamin	-12.8688
▁chemical	-12.8688
▁coupon	-12.8688
▁photograph	-12.8689
▁errand	-12.8689
▁drum	-12.869
▁fulfill	-12.8691
force	-12.8692
▁brake	-12.8692
▁interv	-12.8692
▁custom	-12.8694
▁celebr	-12.8694
▁lecture	-12.8695
ght	-12.8695
▁pitcher	-12.8699
▁download	-12.8701
called	-12.8702
ammed	-12.8702
▁introvert	-12.8703
▁blush	-12.8703
▁stream	-12.8704
▁critici	-12.8707
made	-12.8709
ct	-12.871
bag	-12.8714
tray	-12.8715
fil	-12.8715
▁gag	-12.8715
▁alum	-12.8716
from	-12.8716
fold	-12.8718
float	-12.8718
▁locate	-12.8719
luck	-12.8719
q	-12.8719
▁moth	-12.8719
▁stub	-12.8719
too	-12.8719
▁aggravate	-12.872
jitsu	-12.872
polar	-12.872
model	-12.872
▁nic	-12.872
point	-12.872
writer	-12.872
mission	-12.872
▁choos	-12.872
limited	-12.872
father	-12.8721
glasses	-12.8721
handed	-12.8721
food	-12.8721
understood	-12.8721
motivated	-12.8721
front	-12.8721
wind	-12.8721
which	-12.8721
felt	-12.8721
guard	-12.8721
sometimes	-12.8721
planned	-12.8721
core	-12.8721
everything	-12.8721
chef	-12.8721
soft	-12.8721
common	-12.8721
keeper	-12.8721
loved	-12.8721
▁mist	-12.8721
egg	-12.8722
mail	-12.8722
▁renovat	-12.8722
about	-12.8722
▁brad	-12.8722
tooth	-12.8723
bow	-12.8723
bar	-12.8723
lead	-12.8724
▁charit	-12.8725
▁scree	-12.8725
▁biolog	-12.8725
▁recip	-12.8725
▁slid	-12.8725
▁typical	-12.8726
▁warrant	-12.8726
▁unbelievabl	-12.8726
▁distanc	-12.8727
▁harve	-12.8727
▁charger	-12.8727
▁dime	-12.8728
▁unfor	-12.8728
▁empt	-12.8728
burg	-12.8728
tacles	-12.8729
▁profession	-12.8729
▁kar	-12.8729
logy	-12.8729
raged	-12.8729
quid	-12.873
▁gro	-12.873
▁brace	-12.873
▁immigra	-12.873
▁definite	-12.873
hini	-12.873
▁religio	-12.873
▁audit	-12.873
▁disgrace	-12.873
▁remorse	-12.873
▁prince	-12.8731
rona	-12.8731
rawl	-12.8731
riety	-12.8731
▁esc	-12.8731
thyroid	-12.8731
▁festiv	-12.8731
plications	-12.8731
halant	-12.8731
inducing	-12.8731
ndulge	-12.8731
uccin	-12.8731
wheelchair	-12.8731
▁2014	-12.8731
▁accompany	-12.8731
▁acrobat	-12.8731
▁anesthesia	-12.8731
▁antarctica	-12.8731
▁association	-12.8731
▁automatically	-12.8731
▁baptized	-12.8731
▁barcelona	-12.8731
▁bermuda	-12.8731
▁bikini	-12.8731
▁blizzard	-12.8731
▁breezy	-12.8731
▁bulgaria	-12.8731
▁burp	-12.8731
▁campaign	-12.8731
▁casserole	-12.8731
▁chaotic	-12.8731
▁childbirth	-12.8731
▁clever	-12.8731
▁competitor	-12.8731
▁conduct	-12.8731
▁continent	-12.8731
▁corvette	-12.8731
▁courteous	-12.8731
▁crosswalk	-12.8731
▁deathnote	-12.8731
▁depriv	-12.8731
▁desert	-12.8731
▁despair	-12.8731
▁discontinued	-12.8731
▁discourage	-12.8731
▁dissapoint	-12.8731
▁elaborate	-12.8731
▁electronics	-12.8731
▁eligible	-12.8731
▁embarasing	-12.8731
▁encouraging	-12.8731
▁enlighten	-12.8731
▁entrepreneur	-12.8731
▁erratic	-12.8731
▁euthanize	-12.8731
▁exaggerate	-12.8731
▁examination	-12.8731
▁extinguisher	-12.8731
▁fabulous	-12.8731
▁fickle	-12.8731
▁fixture	-12.8731
▁foreclosed	-12.8731
▁forgiving	-12.8731
▁fossils	-12.8731
▁franchise	-12.8731
▁frusterating	-12.8731
▁gauge	-12.8731
▁glutton	-12.8731
▁gnats	-12.8731
▁grapes	-12.8731
▁gymnastics	-12.8731
▁handicapped	-12.8731
▁hindsight	-12.8731
▁hitchhik	-12.8731
▁irrational	-12.8731
▁keychain	-12.8731
▁lenovo	-12.8731
▁lettuce	-12.8731
▁luxury	-12.8731
▁mammogram	-12.8731
▁michigan	-12.8731
▁millenial	-12.8731
▁mischievous	-12.8731
▁mississippi	-12.8731
▁monoton	-12.8731
▁motto	-12.8731
▁murcialago	-12.8731
▁nascar	-12.8731
▁nashville	-12.8731
▁nissan	-12.8731
▁obedient	-12.8731
▁orientation	-12.8731
▁overjoyed	-12.8731
▁overreacting	-12.8731
▁pattern	-12.8731
▁pedestrian	-12.8731
▁premier	-12.8731
▁privilege	-12.8731
▁problematic	-12.8731
▁profusely	-12.8731
▁proposing	-12.8731
▁rebelli	-12.8731
▁recluse	-12.8731
▁reconsider	-12.8731
▁regime	-12.8731
▁registr	-12.8731
▁reparations	-12.8731
▁responsibly	-12.8731
▁rsvped	-12.8731
▁sabotage	-12.8731
▁salaries	-12.8731
▁salsa	-12.8731
▁samaritan	-12.8731
▁satellite	-12.8731
▁satisfactory	-12.8731
▁scooter	-12.8731
▁sculpture	-12.8731
▁scumbag	-12.8731
▁seizure	-12.8731
▁shampoo	-12.8731
▁shellfish	-12.8731
▁silence	-12.8731
▁squeeze	-12.8731
▁stalker	-12.8731
▁subordinate	-12.8731
▁subscription	-12.8731
▁sundae	-12.8731
▁sunrise	-12.8731
▁superstitious	-12.8731
▁suspicious	-12.8731
▁swimmer	-12.8731
▁tangiers	-12.8731
▁thermostat	-12.8731
▁tissue	-12.8731
▁tobacco	-12.8731
▁toothpaste	-12.8731
▁triathlon	-12.8731
▁trouser	-12.8731
▁tumor	-12.8731
▁twelve	-12.8731
▁ultra	-12.8731
▁unbearable	-12.8731
▁unconditional	-12.8731
▁universe	-12.8731
▁unknowingly	-12.8731
▁unnerved	-12.8731
▁veterans	-12.8731
▁vinci	-12.8731
▁whisper	-12.8731
▁widow	-12.8731
▁wimbledon	-12.8731
▁wrench	-12.8731
▁abnormal	-12.8731
▁bobcat	-12.8731
▁equi	-12.8731
▁loaf	-12.8731
▁restoration	-12.8731
▁scheme	-12.8731
▁smirk	-12.8731
▁venue	-12.8731
▁abundant	-12.8731
▁capture	-12.8731
▁dismiss	-12.8731
▁district	-12.8731
▁feces	-12.8731
▁germs	-12.8731
▁improper	-12.8731
▁intelligence	-12.8731
▁lyft	-12.8731
▁millennial	-12.8731
▁punctual	-12.8731
▁semifinal	-12.8731
▁shelves	-12.8731
▁shriek	-12.8731
▁siberia	-12.8731
▁unpredictable	-12.8731
▁crumb	-12.8731
▁fumble	-12.8731
▁impuls	-12.8731
▁microphone	-12.8731
▁rifle	-12.8731
▁splatoon	-12.8731
▁stairwell	-12.8731
▁unease	-12.8731
nguish	-12.8731
▁activist	-12.8731
▁bacteria	-12.8731
▁belgi	-12.8731
▁bundle	-12.8731
▁dominos	-12.8731
▁induce	-12.8731
▁isolation	-12.8731
▁maximum	-12.8731
▁musk	-12.8731
▁discourse	-12.8731
▁inconvenience	-12.8731
▁refinanc	-12.8731
▁attentive	-12.8731
▁consolation	-12.8731
▁deodorant	-12.8731
▁initiative	-12.8731
▁inquir	-12.8731
▁morbid	-12.8731
▁swip	-12.8731
▁appendi	-12.8731
▁nigeria	-12.8731
▁casual	-12.8731
▁declare	-12.8731
▁echo	-12.8731
▁escalat	-12.8731
▁expedition	-12.8731
▁jetski	-12.8731
▁magnum	-12.8731
▁minimize	-12.8731
▁stamp	-12.8731
▁tramp	-12.8731
▁volcan	-12.8731
▁chemo	-12.8731
▁deductible	-12.8731
▁defensive	-12.8731
▁angri	-12.8731
▁comfy	-12.8731
▁lobby	-12.8731
▁tokyo	-12.8731
▁downsizing	-12.8731
▁frantic	-12.8731
▁contributions	-12.8731
▁intake	-12.8731
▁mistreat	-12.8731
▁situated	-12.8731
ache	-12.8731
codi	-12.8731
▁tabby	-12.8731
▁pirate	-12.8731
mom	-12.8731
▁adamant	-12.8731
▁sickening	-12.8731
▁terminal	-12.8731
rizon	-12.8731
▁bluegrass	-12.8731
▁dunk	-12.8731
▁ignorance	-12.8731
▁motive	-12.8731
▁micro	-12.8731
▁1990	-12.8731
▁properties	-12.8731
▁kmart	-12.8731
▁brun	-12.8731
▁nonetheless	-12.8731
▁bolt	-12.8731
▁extort	-12.8731
▁swimsuit	-12.8731
▁invade	-12.8731
▁misplace	-12.8731
▁rodents	-12.8731
▁substitute	-12.8731
▁maze	-12.8731
▁revolution	-12.8731
▁whack	-12.8731
▁vader	-12.8731
ibility	-12.8731
▁blogging	-12.8731
▁detective	-12.8731
▁leaf	-12.8731
▁celebrity	-12.8731
▁griev	-12.8731
▁kitties	-12.8731
▁lucas	-12.8731
▁figurine	-12.8731
▁mystery	-12.8731
▁spectac	-12.8731
▁introduction	-12.8731
ulations	-12.8731
▁bloom	-12.8731
▁cirr	-12.8731
▁damper	-12.8731
▁exhort	-12.8731
▁rising	-12.8731
▁android	-12.8731
▁parade	-12.8731
▁passport	-12.8731
▁editor	-12.8731
▁nicu	-12.8731
trate	-12.8731
▁stake	-12.8731
▁rowdy	-12.8731
▁hatred	-12.8731
▁modern	-12.8731
eek	-12.8731
▁shrink	-12.8731
▁possess	-12.8731
giht	-12.8731
▁addictive	-12.8731
▁glory	-12.8731
▁exten	-12.8732
▁nutrition	-12.8732
▁drone	-12.8732
▁beginner	-12.8732
ilant	-12.8732
▁powerpoint	-12.8732
▁rainstorm	-12.8732
▁certificate	-12.8732
▁profile	-12.8732
▁irate	-12.8732
▁blog	-12.8732
▁artwork	-12.8732
▁charitable	-12.8732
▁sunlight	-12.8732
▁rica	-12.8732
▁species	-12.8732
▁disguise	-12.8732
▁retriever	-12.8732
▁mlb	-12.8732
▁undone	-12.8732
▁antho	-12.8732
▁mushy	-12.8732
▁boredom	-12.8732
▁rubbish	-12.8732
▁dull	-12.8732
▁jackson	-12.8732
▁trace	-12.8732
▁memento	-12.8732
▁scamp	-12.8732
fila	-12.8732
▁believable	-12.8732
▁string	-12.8732
▁preacher	-12.8732
▁publisher	-12.8732
▁shrug	-12.8732
▁prescription	-12.8733
▁insured	-12.8733
▁spaid	-12.8733
▁keepsake	-12.8733
▁scrambl	-12.8733
▁2020	-12.8733
▁360	-12.8733
▁lex	-12.8733
▁bothersome	-12.8733
▁godmother	-12.8733
▁mileage	-12.8733
▁annoyance	-12.8733
▁confession	-12.8733
▁247	-12.8733
▁leon	-12.8733
▁turk	-12.8733
▁clerk	-12.8733
▁37	-12.8733
▁india	-12.8733
span	-12.8733
▁vacay	-12.8733
▁alter	-12.8734
▁adrenaline	-12.8734
▁clam	-12.8734
▁authority	-12.8734
▁heels	-12.8734
▁selection	-12.8734
▁severance	-12.8734
zel	-12.8734
▁paris	-12.8734
▁flex	-12.8734
▁oops	-12.8734
▁rule	-12.8734
▁vile	-12.8734
▁overdue	-12.8734
▁carreful	-12.8734
▁cries	-12.8734
▁pur	-12.8734
▁obey	-12.8734
▁cocoa	-12.8734
▁oreo	-12.8735
▁brat	-12.8735
▁noticing	-12.8735
▁marine	-12.8735
▁wheat	-12.8735
▁dummy	-12.8735
▁nag	-12.8735
▁reco	-12.8735
▁weirdos	-12.8735
▁instrumental	-12.8736
▁petey	-12.8736
jun	-12.8736
▁shoud	-12.8736
▁affection	-12.8736
▁acne	-12.8736
▁recite	-12.8736
▁alcoholic	-12.8736
▁norm	-12.8736
▁encouragement	-12.8736
▁mindset	-12.8736
▁favorit	-12.8736
▁amusing	-12.8736
▁kickball	-12.8736
home	-12.8737
▁according	-12.8737
▁wholesome	-12.8737
master	-12.8737
▁momentos	-12.8737
▁betrayal	-12.8737
▁feast	-12.8737
▁disturbed	-12.8737
▁contribute	-12.8737
▁royale	-12.8737
▁stabbed	-12.8737
▁branches	-12.8737
▁giggling	-12.8737
▁rotted	-12.8738
▁ec	-12.8738
▁sci	-12.8738
▁alps	-12.8738
▁85	-12.8738
▁copies	-12.8738
▁mill	-12.8738
▁fold	-12.8738
ickety	-12.8738
▁throwback	-12.8738
▁priority	-12.8738
▁romance	-12.8738
▁satur	-12.8739
▁bud	-12.8739
oped	-12.8739
▁lu	-12.8739
▁plead	-12.8739
ympho	-12.8739
▁protection	-12.8739
▁forgiveness	-12.8739
▁growling	-12.8739
▁jani	-12.874
▁unemployed	-12.874
▁jin	-12.874
▁highlight	-12.874
▁slamm	-12.874
ierce	-12.874
lf	-12.8741
▁phd	-12.8741
▁finalist	-12.8741
▁trends	-12.8741
matics	-12.8741
▁conclusions	-12.8741
▁staples	-12.8741
▁tariffs	-12.8741
▁donations	-12.8741
ifications	-12.8742
▁q	-12.8742
▁reel	-12.8742
▁chillin	-12.8742
▁tenant	-12.8742
▁consuming	-12.8742
inner	-12.8743
▁thesis	-12.8743
▁shooter	-12.8743
▁bravery	-12.8743
thical	-12.8745
▁shagg	-12.8745
vocation	-12.8747
▁gary	-12.8747
▁bil	-12.8747
▁brewery	-12.8747
▁yucky	-12.8747
▁slimy	-12.8747
▁boon	-12.8748
▁letdown	-12.8748
▁penni	-12.8748
▁bush	-12.8748
urney	-12.8748
▁snoop	-12.8748
▁ev	-12.8749
▁secondary	-12.8749
▁mace	-12.8749
▁oppos	-12.8749
▁slick	-12.8749
new	-12.875
▁equally	-12.875
▁permanently	-12.875
▁separately	-12.875
had	-12.875
real	-12.8752
▁strengthen	-12.8752
▁fluid	-12.8752
usting	-12.8753
pine	-12.8754
▁ambitio	-12.8754
▁wreckless	-12.8754
▁chin	-12.8754
▁roadside	-12.8754
▁scorche	-12.8755
▁upbeat	-12.8755
▁bubbl	-12.8756
▁effortless	-12.8756
▁thanos	-12.8756
▁ultimately	-12.8757
adequate	-12.8757
▁trop	-12.8758
▁blushing	-12.8759
▁disconnecting	-12.8759
▁claws	-12.8759
▁remarks	-12.8759
▁reptiles	-12.8759
▁russians	-12.8759
▁plum	-12.8761
▁goodwill	-12.8761
▁funky	-12.8762
poke	-12.8763
gued	-12.8763
▁healer	-12.8763
▁acknowledged	-12.8763
▁developers	-12.8764
▁visitor	-12.8764
uffed	-12.8765
▁dub	-12.8767
dered	-12.8767
▁distraction	-12.8768
god	-12.8768
▁panicked	-12.8769
▁bald	-12.8769
▁hurtful	-12.877
hroom	-12.877
▁gossiping	-12.877
▁snowboarding	-12.877
▁distressing	-12.877
▁unfairly	-12.8771
▁fatal	-12.8771
▁powerless	-12.8771
mos	-12.8771
thinking	-12.8771
▁blinked	-12.8772
▁rack	-12.8772
▁lug	-12.8775
▁tale	-12.8775
▁evacuated	-12.8775
▁embar	-12.8776
▁union	-12.8776
▁maine	-12.8776
▁squat	-12.8777
empathetic	-12.8777
▁vers	-12.8777
▁relations	-12.8778
▁buds	-12.8778
▁gloves	-12.8778
▁prospects	-12.8778
▁matured	-12.8779
▁strips	-12.878
▁kicker	-12.8781
▁tensed	-12.8781
bone	-12.8781
west	-12.8782
▁doggo	-12.8783
▁repu	-12.8783
▁threatened	-12.8783
▁coding	-12.8784
▁totino	-12.8784
▁upper	-12.8784
▁spitt	-12.8785
▁spir	-12.8786
▁fixable	-12.8791
sound	-12.8791
▁neglecting	-12.8792
▁hernia	-12.8792
▁gaz	-12.8793
▁sword	-12.8795
▁legends	-12.8797
▁conventions	-12.8797
▁listener	-12.8797
▁dragg	-12.8798
▁tender	-12.8799
▁overlook	-12.8799
▁bones	-12.8799
alty	-12.88
▁fighter	-12.8801
ified	-12.8802
▁haters	-12.8803
▁crackers	-12.8803
▁scamme	-12.8803
▁wax	-12.8804
▁indoor	-12.8804
▁leaking	-12.8804
▁crawly	-12.8805
▁remodeled	-12.8806
▁nick	-12.881
urdle	-12.8811
▁pod	-12.8811
▁angle	-12.8813
▁graders	-12.8815
▁interrupting	-12.8815
▁genetics	-12.8815
▁tab	-12.882
bos	-12.882
▁savers	-12.882
▁debat	-12.8821
▁tricky	-12.8821
▁raf	-12.8821
▁syria	-12.8821
▁forgiven	-12.8822
▁stud	-12.8823
▁crow	-12.8823
tain	-12.8825
▁banker	-12.8825
▁chewing	-12.8826
ared	-12.8826
anned	-12.8827
inal	-12.8828
▁solved	-12.8829
▁smartest	-12.883
▁angels	-12.8834
▁chainsaws	-12.8834
▁sessions	-12.8834
▁nikes	-12.8835
ica	-12.8837
▁tempting	-12.8838
▁writers	-12.8839
mother	-12.8841
llusion	-12.8842
▁indiana	-12.8843
▁spinn	-12.8845
trust	-12.8846
▁pins	-12.8847
isco	-12.8851
▁updates	-12.8852
▁criminals	-12.8853
▁bullets	-12.8853
▁hail	-12.8855
▁chugg	-12.8861
cou	-12.8868
70	-12.8869
▁herbs	-12.8869
cier	-12.8872
▁functions	-12.8872
▁meets	-12.8873
▁agents	-12.8873
nera	-12.8877
▁shadows	-12.8879
▁reader	-12.8883
▁belonging	-12.8886
▁popp	-12.8888
▁dragons	-12.8892
▁jets	-12.8892
▁accidental	-12.8893
▁providers	-12.8894
▁cuddles	-12.8894
inded	-12.8895
then	-12.8896
▁intro	-12.8897
▁grey	-12.8901
▁grader	-12.8904
▁wipes	-12.8905
▁individuals	-12.891
spects	-12.8912
top	-12.8912
▁funnie	-12.8924
▁define	-12.8924
▁backpacks	-12.8929
▁locations	-12.8929
▁hints	-12.893
▁complaints	-12.8932
▁sucky	-12.8934
▁responded	-12.8936
ved	-12.8945
▁dorms	-12.8949
▁torch	-12.8949
▁lowered	-12.8949
▁labs	-12.8949
▁milestones	-12.8949
▁dealers	-12.8951
▁alwa	-12.8951
hell	-12.8953
▁forces	-12.8955
▁chilling	-12.8956
▁matt	-12.8958
▁changer	-12.8962
wer	-12.8962
▁ga	-12.8963
▁quarters	-12.8968
▁boomer	-12.8968
▁libera	-12.8971
▁harmed	-12.8974
▁bugger	-12.898
▁budgeted	-12.8983
▁littering	-12.8985
▁views	-12.8987
▁breezes	-12.8987
▁knifes	-12.8987
▁drawings	-12.8987
bing	-12.8989
▁racial	-12.8993
▁breaker	-12.8994
▁pies	-12.8997
▁canad	-12.9002
▁clumsi	-12.9003
▁fairy	-12.9006
▁heavens	-12.9006
▁languages	-12.9006
▁routines	-12.9006
▁investments	-12.9007
▁sch	-12.9008
esta	-12.901
▁strongly	-12.901
▁mars	-12.9013
▁tele	-12.9014
da	-12.9016
▁memo	-12.9016
wn	-12.9019
▁dope	-12.902
▁dumpsters	-12.9026
grown	-12.9031
▁tougher	-12.9043
ap	-12.9044
▁firms	-12.9045
▁dislikes	-12.9045
sons	-12.9048
mp	-12.9049
▁server	-12.9057
▁teens	-12.9064
▁teslas	-12.9065
▁recorded	-12.9067
▁rivalr	-12.9074
▁quote	-12.9078
owed	-12.9084
▁disasters	-12.9084
▁marathons	-12.9084
▁pockets	-12.9084
▁achievements	-12.9085
▁alarming	-12.909
▁scal	-12.9091
ild	-12.9093
tual	-12.9098
diana	-12.9099
▁pops	-12.9106
ires	-12.9109
▁doom	-12.9115
ipping	-12.9117
▁mani	-12.9122
▁winds	-12.9122
▁responses	-12.9123
▁models	-12.9123
ways	-12.9124
▁foreigner	-12.9129
▁hottie	-12.9131
▁giver	-12.9134
▁forming	-12.9137
fri	-12.9142
ything	-12.9142
paid	-12.9144
un	-12.9145
▁flak	-12.9161
▁sights	-12.9162
▁outage	-12.917
▁farting	-12.9171
▁priorit	-12.9171
▁snows	-12.9182
▁farts	-12.9185
▁knitt	-12.9193
▁cri	-12.9193
shop	-12.9198
▁dudes	-12.9199
ose	-12.9199
ust	-12.9211
▁emails	-12.9222
▁towns	-12.9224
di	-12.9228
▁realise	-12.923
balls	-12.9231
fun	-12.9231
▁198	-12.9244
▁vow	-12.925
▁combine	-12.9259
ula	-12.9266
▁balling	-12.927
tory	-12.9272
▁lender	-12.9282
▁improves	-12.9283
▁grat	-12.9292
▁negatives	-12.9302
bot	-12.9308
▁cas	-12.9318
▁warnings	-12.9322
ko	-12.9328
ffy	-12.9328
▁beyon	-12.933
▁alarms	-12.9343
riff	-12.9359
▁differences	-12.9362
▁weary	-12.9368
cto	-12.9383
▁builds	-12.9384
oming	-12.9401
▁vehicles	-12.9402
ass	-12.9404
ups	-12.9404
▁pisse	-12.941
bit	-12.9414
prised	-12.9419
▁swatte	-12.9442
▁gr	-12.9451
▁corners	-12.9471
▁sanit	-12.9498
▁sneaker	-12.9505
▁professionals	-12.9525
▁marker	-12.9559
▁greed	-12.9559
▁centr	-12.9562
▁boxing	-12.957
jama	-12.9572
▁aces	-12.958
den	-12.9593
ole	-12.9594
▁matern	-12.9596
▁beg	-12.9601
▁breathe	-12.9677
▁boundar	-12.9679
▁performances	-12.9691
train	-12.9701
▁renting	-12.9709
▁cuba	-12.9715
used	-12.9716
▁apr	-12.9722
▁toilets	-12.9734
ets	-12.9739
tos	-12.9746
▁swe	-12.9761
▁sur	-12.9766
ider	-12.9767
ank	-12.9767
mal	-12.9773
▁offering	-12.9781
plied	-12.9783
▁rating	-12.9791
cc	-12.9836
▁sco	-12.9858
graceful	-12.9861
▁observ	-12.987
▁queu	-12.9874
▁bowls	-12.9875
una	-12.9883
▁cali	-12.9883
▁ahaha	-12.9883
crawlies	-12.9903
rit	-12.9903
▁cou	-12.9909
odys	-12.9911
cher	-12.9931
ake	-12.9955
▁chop	-12.9964
▁contacts	-12.9973
hopping	-12.9994
tly	-13.0027
▁suite	-13.0054
uch	-13.0054
hob	-13.0067
▁reports	-13.01
▁swings	-13.01
▁hospitalize	-13.0123
ligence	-13.0124
▁ph	-13.0125
▁hon	-13.0141
rc	-13.017
▁stil	-13.0206
▁pois	-13.024
▁scorer	-13.0275
▁faults	-13.0303
ess	-13.033
▁quits	-13.0343
▁whoop	-13.0348
rel	-13.0382
rite	-13.0422
rized	-13.0439
▁flys	-13.0456
100	-13.0493
▁colleges	-13.0503
▁nav	-13.0506
▁sob	-13.0507
▁slipp	-13.0507
igation	-13.0514
ential	-13.0519
art	-13.052
▁vindic	-13.0539
▁detent	-13.0576
▁memorize	-13.0586
▁vac	-13.0593
▁importan	-13.0607
ging	-13.0612
▁holder	-13.0618
tches	-13.0627
ix	-13.0674
▁ent	-13.0701
▁meditat	-13.072
ensive	-13.0744
watch	-13.079
▁che	-13.0791
opl	-13.0801
fty	-13.0822
rall	-13.084
▁mag	-13.0893
voted	-13.0903
gation	-13.0931
ssion	-13.0957
iff	-13.0958
▁nam	-13.0976
off	-13.098
▁cos	-13.1033
mba	-13.1035
▁hospitals	-13.105
vious	-13.1052
▁qu	-13.1067
bber	-13.1073
fie	-13.1079
▁del	-13.1081
▁erect	-13.1118
▁freeing	-13.1119
▁wonders	-13.1126
▁wee	-13.1155
▁supporter	-13.1169
▁positions	-13.1195
rest	-13.1212
imi	-13.126
▁hearted	-13.1264
▁consume	-13.1273
trapped	-13.1277
stones	-13.1285
nned	-13.1298
ility	-13.132
▁bagg	-13.1321
wash	-13.1329
tment	-13.1341
▁lat	-13.136
▁navi	-13.1362
▁trea	-13.1367
▁grip	-13.1387
ump	-13.1399
▁196	-13.1435
erial	-13.1474
▁mob	-13.1483
lled	-13.1505
hed	-13.1514
▁sole	-13.1523
ssing	-13.1536
omo	-13.1551
use	-13.1555
▁saf	-13.1557
▁pointer	-13.156
cat	-13.1602
▁understa	-13.1605
▁sni	-13.1633
▁scru	-13.166
▁astonishe	-13.1673
iation	-13.1685
▁allstar	-13.171
hoo	-13.1737
▁trucks	-13.175
ops	-13.1755
▁forgets	-13.1778
▁cycl	-13.1845
ou	-13.1897
omet	-13.1916
ong	-13.192
▁wat	-13.2003
▁gunn	-13.205
▁queue	-13.2102
ids	-13.2103
▁observe	-13.2107
▁incorrect	-13.2108
▁qua	-13.2136
eight	-13.2152
kitt	-13.2179
arp	-13.219
lock	-13.2228
▁lim	-13.2231
ving	-13.2266
ption	-13.2316
replaceable	-13.2367
morrow	-13.2418
▁tang	-13.2442
▁peo	-13.2444
nding	-13.245
▁bob	-13.2453
iving	-13.2457
▁lic	-13.2469
▁grosses	-13.2515
rby	-13.2522
rets	-13.2565
ude	-13.2572
ince	-13.2585
ril	-13.2586
tie	-13.2614
lute	-13.263
▁93	-13.2636
backs	-13.2668
▁spar	-13.267
▁versa	-13.2705
truck	-13.2706
nad	-13.272
▁emu	-13.2722
▁grea	-13.2731
oo	-13.2752
overs	-13.2755
nts	-13.281
▁rela	-13.2815
▁sno	-13.284
lette	-13.2857
asting	-13.2866
hts	-13.2871
ature	-13.2873
elain	-13.2876
hy	-13.2883
▁tw	-13.2891
▁import	-13.2894
▁horr	-13.2914
▁combin	-13.2924
80	-13.2939
nnie	-13.2955
done	-13.2975
hop	-13.2983
east	-13.2993
phone	-13.3002
cian	-13.3023
cooked	-13.3024
▁39	-13.3045
▁outgrow	-13.3063
▁sham	-13.3063
uba	-13.3063
▁camero	-13.3086
▁rust	-13.3096
bys	-13.3119
own	-13.3135
▁academ	-13.3149
stful	-13.3157
▁prim	-13.3158
▁dea	-13.3158
tan	-13.3167
does	-13.3169
▁obli	-13.317
llows	-13.3175
▁quot	-13.3188
dding	-13.3191
vent	-13.3191
▁rival	-13.3194
sters	-13.3208
ention	-13.3223
▁tucke	-13.3236
▁poll	-13.3237
rio	-13.3251
oh	-13.3258
bie	-13.3276
60	-13.3281
gon	-13.3291
wards	-13.3295
angs	-13.3299
▁defin	-13.3307
▁dep	-13.3318
aga	-13.3325
illing	-13.3352
▁liber	-13.3353
cure	-13.3362
icked	-13.3364
would	-13.3377
uary	-13.3384
▁pow	-13.3393
▁vot	-13.3393
ple	-13.3412
males	-13.3417
▁lea	-13.3417
▁pleas	-13.3418
days	-13.3427
▁cub	-13.344
sleep	-13.3445
ems	-13.3452
ffle	-13.3454
iend	-13.3455
cl	-13.3462
zz	-13.3463
▁excit	-13.3468
▁rang	-13.3474
moving	-13.3483
▁oldie	-13.3487
▁rou	-13.3499
ovies	-13.3501
again	-13.3502
▁manu	-13.3506
▁47	-13.3506
pro	-13.3507
▁soak	-13.3507
has	-13.3511
▁refer	-13.3518
tive	-13.352
▁42	-13.352
azing	-13.354
iser	-13.3543
▁180	-13.3546
ised	-13.3547
his	-13.3548
lusion	-13.3555
sue	-13.3558
▁liv	-13.356
site	-13.3562
inister	-13.3562
▁ou	-13.3566
beards	-13.3568
▁prev	-13.357
dating	-13.357
put	-13.3581
▁gradu	-13.3582
pot	-13.36
▁burgl	-13.3601
▁temp	-13.3609
ively	-13.361
▁virtu	-13.3617
dle	-13.3623
bid	-13.3625
ations	-13.363
▁angi	-13.3631
▁decor	-13.3639
spend	-13.3645
cation	-13.3645
avi	-13.3651
buster	-13.3657
▁releas	-13.3662
▁undergrad	-13.3663
▁sav	-13.3663
tary	-13.3668
fy	-13.3669
caring	-13.367
▁brui	-13.3671
▁plea	-13.3672
▁gran	-13.3673
horn	-13.3674
sapp	-13.3678
▁revers	-13.3679
▁agre	-13.3679
▁mushroom	-13.368
▁surviv	-13.368
▁textbook	-13.368
▁device	-13.368
▁layoff	-13.368
▁spoon	-13.3681
bl	-13.3682
▁champion	-13.3682
▁reptile	-13.3684
▁remark	-13.3685
arch	-13.3686
eaked	-13.3686
beat	-13.3686
▁vaccine	-13.3686
▁calorie	-13.3687
▁pancake	-13.3688
▁expression	-13.3688
▁cupboard	-13.3689
▁appliance	-13.3689
▁exception	-13.369
▁balloon	-13.369
▁preference	-13.369
onna	-13.3691
infe	-13.3691
▁cowboy	-13.3691
▁yankee	-13.3692
▁claw	-13.3692
▁headphone	-13.3692
oney	-13.3694
▁commercial	-13.3694
dela	-13.3695
▁respon	-13.3698
▁devot	-13.3698
▁dissapear	-13.3699
▁accomplis	-13.3699
▁favour	-13.3699
▁playoff	-13.3699
▁declin	-13.3701
▁colleg	-13.3701
▁organiz	-13.3701
▁shoplift	-13.3702
▁publish	-13.3702
onated	-13.3703
punctu	-13.3703
rupt	-13.3704
wise	-13.3704
▁abus	-13.3704
▁worm	-13.3705
▁intend	-13.3705
▁reject	-13.3705
▁inherit	-13.3705
▁dishearten	-13.3705
▁russian	-13.3705
▁shatter	-13.3706
▁preorder	-13.3706
▁arrest	-13.3706
▁kayak	-13.3706
▁refresh	-13.3706
▁investor	-13.3708
care	-13.3708
▁freelanc	-13.3709
ze	-13.371
▁unplug	-13.371
▁sigh	-13.371
▁terrify	-13.3711
▁buck	-13.3711
▁gui	-13.3711
▁expectation	-13.3711
▁developer	-13.3712
▁diab	-13.3713
47	-13.3714
storm	-13.3715
free	-13.3716
▁rearrange	-13.3717
▁skydiv	-13.3717
▁hydrate	-13.3717
plug	-13.3717
67	-13.3718
earth	-13.3719
hearted	-13.3719
cycl	-13.3719
sword	-13.3719
shadows	-13.3719
▁interact	-13.3719
election	-13.372
▁reunite	-13.372
accurate	-13.372
approval	-13.372
relevan	-13.372
▁squi	-13.372
▁isolate	-13.372
proof	-13.372
▁amaze	-13.372
coat	-13.372
castle	-13.372
possum	-13.372
conscious	-13.372
tension	-13.3721
▁coordinate	-13.3721
wrecking	-13.3721
protective	-13.3721
cough	-13.3721
culture	-13.3721
responsibility	-13.3721
qualified	-13.3721
wide	-13.3721
green	-13.3721
diagnose	-13.3721
promise	-13.3721
otherwise	-13.3721
successful	-13.3721
appreciated	-13.3721
blood	-13.3721
confident	-13.3721
shift	-13.3721
treat	-13.3721
job	-13.3721
class	-13.3721
drive	-13.3721
lip	-13.3721
pick	-13.3721
sense	-13.3721
vac	-13.3721
because	-13.3721
active	-13.3721
people	-13.3721
pants	-13.3721
person	-13.3721
selling	-13.3721
shake	-13.3721
vacation	-13.3721
shore	-13.3722
cream	-13.3722
burn	-13.3722
balance	-13.3722
hopefully	-13.3722
esteem	-13.3722
devil	-13.3722
▁advi	-13.3722
interest	-13.3723
type	-13.3723
mark	-13.3723
▁tak	-13.3723
why	-13.3723
kids	-13.3723
their	-13.3723
rtation	-13.3723
related	-13.3723
hap	-13.3724
10	-13.3724
▁coffe	-13.3724
▁spra	-13.3724
version	-13.3724
suit	-13.3724
comp	-13.3724
always	-13.3725
imental	-13.3725
▁strawberr	-13.3725
▁neve	-13.3725
leak	-13.3725
tenant	-13.3725
▁adventur	-13.3725
▁appoint	-13.3725
▁strateg	-13.3725
▁fuzz	-13.3725
▁refle	-13.3725
▁pharmac	-13.3725
ounge	-13.3725
▁pregnanc	-13.3725
▁understan	-13.3725
kept	-13.3726
▁disse	-13.3726
▁float	-13.3726
▁adrenalin	-13.3726
▁stead	-13.3726
▁appro	-13.3726
▁spil	-13.3727
▁franc	-13.3727
▁restore	-13.3727
kinda	-13.3727
draft	-13.3727
▁tonigh	-13.3727
▁millio	-13.3727
▁bough	-13.3728
▁batter	-13.3728
lox	-13.3728
▁gat	-13.3728
romance	-13.3728
low	-13.3728
▁enem	-13.3728
▁commo	-13.3728
enni	-13.3728
▁retrieve	-13.3728
▁lb	-13.3729
icular	-13.3729
gne	-13.3729
semi	-13.3729
▁custo	-13.3729
lost	-13.3729
hos	-13.373
▁chara	-13.373
▁organize	-13.373
rystal	-13.373
ndition	-13.373
trum	-13.373
script	-13.373
▁occas	-13.373
▁practi	-13.373
evolution	-13.373
▁mornin	-13.373
ypt	-13.373
band	-13.373
▁confusi	-13.373
currency	-13.373
▁destructi	-13.373
▁luxuri	-13.373
▁resc	-13.373
▁surge	-13.373
▁ignoran	-13.373
tressful	-13.373
▁ruth	-13.373
stitute	-13.373
▁gorge	-13.373
▁porc	-13.373
▁unfortun	-13.3731
▁violin	-13.3731
dashi	-13.3731
▁frapp	-13.3731
▁sophisticat	-13.3731
curricul	-13.3731
▁absorb	-13.3731
▁articulat	-13.3731
▁broadcast	-13.3731
▁comprehend	-13.3731
▁degrad	-13.3731
▁discontent	-13.3731
▁discreet	-13.3731
▁disloyal	-13.3731
▁reveal	-13.3731
▁selfreflect	-13.3731
▁univeris	-13.3731
astroph	-13.3731
bursed	-13.3731
cryptocurrencies	-13.3731
energized	-13.3731
nsylvania	-13.3731
nuclear	-13.3731
olarship	-13.3731
provoked	-13.3731
raneosyneostosis	-13.3731
unpredictability	-13.3731
▁711	-13.3731
▁abadon	-13.3731
▁accelerate	-13.3731
▁adolescen	-13.3731
▁advertise	-13.3731
▁appetizer	-13.3731
▁architect	-13.3731
▁arduous	-13.3731
▁arkansa	-13.3731
▁armidillo	-13.3731
▁attribute	-13.3731
▁audio	-13.3731
▁autumn	-13.3731
▁bandicoot	-13.3731
▁bankruptcy	-13.3731
▁billionaire	-13.3731
▁blackhawks	-13.3731
▁branson	-13.3731
▁broccoli	-13.3731
▁bygones	-13.3731
▁calendar	-13.3731
▁cardiologist	-13.3731
▁caretaker	-13.3731
▁cassette	-13.3731
▁cheerleader	-13.3731
▁chemotherapy	-13.3731
▁cherries	-13.3731
▁chuckle	-13.3731
▁cliffhanger	-13.3731
▁clunker	-13.3731
▁collapse	-13.3731
▁collapsing	-13.3731
▁combustion	-13.3731
▁congra	-13.3731
▁connor	-13.3731
▁cooperate	-13.3731
▁council	-13.3731
▁criminology	-13.3731
▁cucumber	-13.3731
▁curios	-13.3731
▁dakota	-13.3731
▁decrease	-13.3731
▁deficit	-13.3731
▁democracy	-13.3731
▁discriminat	-13.3731
▁dispens	-13.3731
▁drills	-13.3731
▁earbuds	-13.3731
▁elevate	-13.3731
▁enhance	-13.3731
▁enrich	-13.3731
▁enterpris	-13.3731
▁envelope	-13.3731
▁essay	-13.3731
▁excursion	-13.3731
▁exhilarating	-13.3731
▁expedia	-13.3731
▁fleamarket	-13.3731
▁flustered	-13.3731
▁furnace	-13.3731
▁furnish	-13.3731
▁ghostbusters	-13.3731
▁googling	-13.3731
▁groove	-13.3731
▁hairdresser	-13.3731
▁hamilton	-13.3731
▁hereditary	-13.3731
▁hippies	-13.3731
▁holocaust	-13.3731
▁hoodlums	-13.3731
▁hooligan	-13.3731
▁hurricaine	-13.3731
▁impeccabl	-13.3731
▁incharge	-13.3731
▁indonesia	-13.3731
▁ingrate	-13.3731
▁innocence	-13.3731
▁institution	-13.3731
▁interpret	-13.3731
▁intoxicated	-13.3731
▁invisible	-13.3731
▁jalepenos	-13.3731
▁jersey	-13.3731
▁juliet	-13.3731
▁kanye	-13.3731
▁kelly	-13.3731
▁kernels	-13.3731
▁kevin	-13.3731
▁kingdom	-13.3731
▁lacrosse	-13.3731
▁leche	-13.3731
▁llws	-13.3731
▁magnitude	-13.3731
▁malpractice	-13.3731
▁manipulat	-13.3731
▁manufact	-13.3731
▁margarita	-13.3731
▁marshmallows	-13.3731
▁massachuset	-13.3731
▁mazda	-13.3731
▁mcgregor	-13.3731
▁mclaren	-13.3731
▁mcnuggets	-13.3731
▁mercari	-13.3731
▁merchandise	-13.3731
▁metroid	-13.3731
▁mickey	-13.3731
▁misfortune	-13.3731
▁mofo	-13.3731
▁moisturizer	-13.3731
▁narcissists	-13.3731
▁neighboor	-13.3731
▁nuisance	-13.3731
▁nurture	-13.3731
▁nurturing	-13.3731
▁opinon	-13.3731
▁optimism	-13.3731
▁overbred	-13.3731
▁pantyhose	-13.3731
▁persistence	-13.3731
▁phew	-13.3731
▁platform	-13.3731
▁plunge	-13.3731
▁portrait	-13.3731
▁possibilities	-13.3731
▁prairie	-13.3731
▁psychologist	-13.3731
▁python	-13.3731
▁rascal	-13.3731
▁ravage	-13.3731
▁raven	-13.3731
▁ravioli	-13.3731
▁razor	-13.3731
▁reiki	-13.3731
▁remarried	-13.3731
▁reproduce	-13.3731
▁reruns	-13.3731
▁reshingle	-13.3731
▁retaliate	-13.3731
▁revisit	-13.3731
▁robocalls	-13.3731
▁rockstar	-13.3731
▁rogue	-13.3731
▁safari	-13.3731
▁sarcastic	-13.3731
▁sargent	-13.3731
▁scooper	-13.3731
▁seperated	-13.3731
▁sewage	-13.3731
▁shield	-13.3731
▁snicker	-13.3731
▁snotty	-13.3731
▁sociopath	-13.3731
▁sorrowful	-13.3731
▁spree	-13.3731
▁stabilize	-13.3731
▁stench	-13.3731
▁stroll	-13.3731
▁syracuse	-13.3731
▁taurus	-13.3731
▁thumb	-13.3731
▁toothbrush	-13.3731
▁tranquil	-13.3731
▁transaction	-13.3731
▁traverse	-13.3731
▁tundra	-13.3731
▁tunnel	-13.3731
▁ubereats	-13.3731
▁ulcer	-13.3731
▁unavoidable	-13.3731
▁uninterested	-13.3731
▁unprofessional	-13.3731
▁unreasonable	-13.3731
▁unwashed	-13.3731
▁vague	-13.3731
▁vendor	-13.3731
▁vocal	-13.3731
▁wholeheartedly	-13.3731
▁wrestling	-13.3731
▁xperia	-13.3731
▁accents	-13.3731
▁aloud	-13.3731
▁aspca	-13.3731
▁challan	-13.3731
▁cowoker	-13.3731
▁disapoint	-13.3731
▁disinfect	-13.3731
▁embarres	-13.3731
▁expedite	-13.3731
▁flavour	-13.3731
▁gazebo	-13.3731
▁gdp	-13.3731
▁girlfir	-13.3731
▁gordita	-13.3731
▁jacksonville	-13.3731
▁jocks	-13.3731
▁plagiarism	-13.3731
▁plasma	-13.3731
▁postpon	-13.3731
▁reinstat	-13.3731
▁repetitive	-13.3731
▁seaweed	-13.3731
▁slither	-13.3731
▁slugg	-13.3731
▁stomp	-13.3731
▁tedious	-13.3731
▁transparen	-13.3731
▁tremendous	-13.3731
▁vanished	-13.3731
▁weightlifting	-13.3731
▁abhor	-13.3731
▁acqui	-13.3731
▁dwelling	-13.3731
▁frazzled	-13.3731
▁frosting	-13.3731
▁adhd	-13.3731
▁aftermath	-13.3731
▁consummer	-13.3731
▁drench	-13.3731
▁duplex	-13.3731
▁fidel	-13.3731
▁greyhou	-13.3731
▁refrain	-13.3731
▁squirm	-13.3731
▁coincidental	-13.3731
▁sample	-13.3731
diatri	-13.3731
sylv	-13.3731
▁applicai	-13.3731
▁devour	-13.3731
▁exposed	-13.3731
▁slope	-13.3731
▁volvo	-13.3731
▁laces	-13.3731
▁mumbling	-13.3731
▁oriented	-13.3731
▁abrupt	-13.3731
▁cheque	-13.3731
▁citations	-13.3731
▁enws	-13.3731
▁uear	-13.3731
▁undeci	-13.3731
▁outpour	-13.3731
▁cramped	-13.3731
▁fatigue	-13.3731
▁comedian	-13.3731
▁hyperthyroid	-13.3731
▁knox	-13.3731
▁nifty	-13.3731
▁rampant	-13.3731
▁swerving	-13.3731
▁eharmony	-13.3731
▁rangoon	-13.3731
▁foreclosure	-13.3731
▁knots	-13.3731
▁obtain	-13.3731
▁911	-13.3731
▁alliance	-13.3731
▁corporat	-13.3731
▁blatan	-13.3731
▁minivan	-13.3731
icipa	-13.3731
▁forehead	-13.3731
▁worship	-13.3731
▁crisp	-13.3731
▁mortality	-13.3731
▁probation	-13.3731
▁convert	-13.3731
▁insensitivity	-13.3731
▁microchip	-13.3731
▁agian	-13.3731
▁ugg	-13.3731
▁sprout	-13.3731
polis	-13.3731
▁accumulation	-13.3731
▁mohawk	-13.3731
▁scarface	-13.3731
▁amphi	-13.3731
▁measure	-13.3731
▁neigh	-13.3731
▁buffoon	-13.3731
▁quater	-13.3731
▁exiting	-13.3731
▁pedal	-13.3731
▁poodle	-13.3731
▁altogether	-13.3731
▁choir	-13.3731
▁protest	-13.3731
▁invented	-13.3731
triguing	-13.3731
▁condensor	-13.3731
▁dictator	-13.3731
▁mount	-13.3731
▁discard	-13.3731
▁rebuilt	-13.3731
▁twitch	-13.3731
▁dawn	-13.3731
▁destin	-13.3731
essive	-13.3731
▁polish	-13.3731
auze	-13.3731
▁dangerfield	-13.3731
▁unforgivable	-13.3731
▁depot	-13.3731
▁earlie	-13.3731
▁denver	-13.3731
▁chaise	-13.3731
▁accessory	-13.3731
▁bulk	-13.3731
▁empower	-13.3731
▁kong	-13.3731
▁stats	-13.3731
▁verify	-13.3731
▁phish	-13.3731
▁fiber	-13.3731
▁foresee	-13.3731
▁grid	-13.3731
▁cloves	-13.3731
▁hostile	-13.3731
▁outdated	-13.3731
▁investigation	-13.3731
▁stump	-13.3731
▁alexa	-13.3731
▁eternal	-13.3731
▁astron	-13.3731
▁occup	-13.3731
▁emot	-13.3731
▁recieve	-13.3731
▁blunt	-13.3731
▁antics	-13.3731
ciated	-13.3731
▁pangs	-13.3731
▁alumni	-13.3731
▁bidding	-13.3731
▁expir	-13.3731
▁admin	-13.3732
valent	-13.3732
▁curry	-13.3732
▁undeserved	-13.3732
▁resentful	-13.3732
▁pub	-13.3732
▁civilian	-13.3732
▁mangled	-13.3732
▁gentleman	-13.3732
▁slur	-13.3732
▁unload	-13.3732
▁whistl	-13.3732
▁rinse	-13.3732
▁judgemental	-13.3732
▁liz	-13.3732
urning	-13.3732
▁johnson	-13.3732
▁disrespect	-13.3732
▁mozza	-13.3732
▁voiceover	-13.3732
▁latter	-13.3732
▁recreati	-13.3732
scuit	-13.3732
▁graci	-13.3732
ghett	-13.3732
▁handstand	-13.3732
▁existence	-13.3732
▁representation	-13.3732
moon	-13.3732
▁benz	-13.3732
▁leader	-13.3732
▁pluck	-13.3732
▁revol	-13.3732
dora	-13.3732
vation	-13.3732
▁ruthless	-13.3732
▁chatroom	-13.3732
▁vids	-13.3732
▁diesel	-13.3732
▁spikes	-13.3732
▁hoard	-13.3732
ploy	-13.3732
▁candle	-13.3732
▁colon	-13.3732
▁pears	-13.3732
▁amends	-13.3732
▁glance	-13.3732
▁granddad	-13.3732
camping	-13.3732
▁visor	-13.3732
rassing	-13.3732
▁suicide	-13.3733
▁steakhouse	-13.3733
▁romantically	-13.3733
▁retain	-13.3733
▁wipers	-13.3733
ology	-13.3733
▁soldier	-13.3733
armin	-13.3733
▁silent	-13.3733
▁handyman	-13.3733
▁intimat	-13.3733
▁eco	-13.3733
▁delet	-13.3733
▁tomor	-13.3733
▁volume	-13.3733
▁undies	-13.3733
▁cru	-13.3733
agl	-13.3733
▁frick	-13.3733
▁scarce	-13.3733
▁century	-13.3733
erving	-13.3733
idated	-13.3733
▁compla	-13.3733
settling	-13.3733
▁tragically	-13.3733
▁matri	-13.3734
▁relic	-13.3734
urance	-13.3734
▁accom	-13.3734
▁flint	-13.3734
▁nec	-13.3734
▁roman	-13.3734
▁humbleness	-13.3734
▁broade	-13.3734
ulous	-13.3734
▁anonymously	-13.3734
▁everynight	-13.3734
▁courthouse	-13.3734
▁redlight	-13.3734
▁touchdown	-13.3734
▁kil	-13.3734
▁bux	-13.3734
seat	-13.3734
▁visa	-13.3735
▁weaned	-13.3735
▁avale	-13.3735
▁malte	-13.3735
▁palp	-13.3735
▁rigth	-13.3735
▁recen	-13.3735
▁hinder	-13.3735
▁unloved	-13.3735
▁beatdown	-13.3735
▁rolex	-13.3735
▁eruption	-13.3735
▁cozy	-13.3735
▁stank	-13.3735
▁vig	-13.3735
▁pbs	-13.3735
▁confrontation	-13.3735
pikes	-13.3735
▁embarrassment	-13.3735
▁responsive	-13.3735
▁savi	-13.3735
▁chic	-13.3735
msy	-13.3735
cient	-13.3735
▁meetups	-13.3736
erday	-13.3736
▁650	-13.3736
▁afterlife	-13.3736
▁intrigued	-13.3736
▁fillet	-13.3736
▁characteristic	-13.3736
▁alteration	-13.3736
▁genero	-13.3736
▁accountant	-13.3736
tarting	-13.3736
ignon	-13.3736
▁dilem	-13.3736
▁nightlife	-13.3736
▁gator	-13.3736
▁deduct	-13.3736
koal	-13.3736
▁globe	-13.3736
▁pierced	-13.3736
▁stew	-13.3737
▁nonc	-13.3737
break	-13.3737
▁conceal	-13.3737
▁popularity	-13.3737
▁profitable	-13.3737
▁bern	-13.3737
ular	-13.3737
▁overweight	-13.3737
▁overload	-13.3737
▁truthful	-13.3737
▁comb	-13.3737
▁polluti	-13.3737
▁reign	-13.3737
▁stance	-13.3737
▁cancellation	-13.3737
▁chor	-13.3737
▁homerun	-13.3737
▁peachy	-13.3737
▁rapid	-13.3738
▁nev	-13.3738
▁corp	-13.3738
strap	-13.3738
▁starve	-13.3738
bees	-13.3738
ethi	-13.3738
▁cooperati	-13.3738
savers	-13.3738
onkey	-13.3738
istan	-13.3738
▁2001	-13.3739
▁adam	-13.3739
▁dau	-13.3739
▁villa	-13.3739
▁acro	-13.3739
▁nig	-13.3739
▁settlement	-13.3739
▁revel	-13.374
▁nation	-13.374
▁tournem	-13.374
▁impeach	-13.374
▁riser	-13.374
▁vp	-13.3741
▁gambler	-13.3741
▁preach	-13.3741
vity	-13.3741
▁pouch	-13.3741
▁98	-13.3741
oxi	-13.3741
▁dung	-13.3741
▁functional	-13.3741
▁luckier	-13.3742
▁loving	-13.3742
▁matty	-13.3742
▁cartil	-13.3742
▁dehydrated	-13.3742
▁convicted	-13.3742
▁lun	-13.3742
mart	-13.3743
▁flattered	-13.3743
▁tiem	-13.3743
lous	-13.3743
▁ahd	-13.3743
▁oilers	-13.3743
hawk	-13.3743
▁67	-13.3743
▁bleach	-13.3743
▁privele	-13.3743
▁setback	-13.3744
▁waive	-13.3744
▁hardship	-13.3744
asty	-13.3744
path	-13.3744
▁enable	-13.3744
▁unsettling	-13.3744
▁gala	-13.3745
▁hydrated	-13.3745
▁runner	-13.3745
▁restored	-13.3745
▁planner	-13.3745
▁billet	-13.3745
illion	-13.3745
▁rearranged	-13.3745
▁mugged	-13.3745
▁chord	-13.3745
airbnb	-13.3745
▁fbi	-13.3746
▁tripping	-13.3746
▁fancie	-13.3746
▁assembly	-13.3746
oid	-13.3746
▁5000	-13.3747
udge	-13.3747
▁pickle	-13.3747
▁reconciled	-13.3747
ccup	-13.3748
hter	-13.3748
tional	-13.3748
▁devasted	-13.3748
▁minim	-13.3748
▁procrastinating	-13.3748
▁raging	-13.3748
▁entail	-13.3748
▁oz	-13.3749
▁radar	-13.3749
▁kor	-13.3749
▁dropout	-13.3749
▁trumpet	-13.3749
▁atheletes	-13.375
▁beyblades	-13.375
▁bookcases	-13.375
▁podcasts	-13.375
▁pyramids	-13.375
▁scribbles	-13.375
▁sirens	-13.375
▁trolleys	-13.375
▁urges	-13.375
▁immigrants	-13.375
▁diabeti	-13.375
bbies	-13.375
▁headset	-13.375
▁handball	-13.3751
▁seams	-13.3751
▁favorable	-13.3751
▁wealthy	-13.3751
▁crank	-13.3751
▁folders	-13.3751
▁suppris	-13.3752
omething	-13.3752
pin	-13.3752
▁sweetie	-13.3752
▁conditional	-13.3752
▁weekdays	-13.3752
xes	-13.3752
▁expectant	-13.3752
tyle	-13.3753
erall	-13.3753
straint	-13.3753
▁mankind	-13.3753
▁slash	-13.3753
▁calculator	-13.3754
theless	-13.3754
▁ringers	-13.3754
▁unplugg	-13.3754
▁speach	-13.3754
▁lem	-13.3755
lef	-13.3755
▁histori	-13.3755
▁bearable	-13.3756
▁flicker	-13.3756
▁dependable	-13.3757
atable	-13.3757
▁stinker	-13.3759
cture	-13.3759
surg	-13.3759
▁morale	-13.3759
▁skimp	-13.376
▁assess	-13.376
▁cringing	-13.3761
▁wheeler	-13.3761
▁freelancing	-13.3761
▁nauseating	-13.3761
▁shoplifting	-13.3761
▁overheard	-13.3762
▁tee	-13.3762
▁dissapeared	-13.3762
▁favoured	-13.3762
▁respectable	-13.3763
▁rockies	-13.3763
▁sprint	-13.3763
▁introspecti	-13.3765
nizing	-13.3766
▁wiser	-13.3766
▁bucke	-13.3766
▁passage	-13.3766
▁shack	-13.3767
▁sty	-13.3767
▁gash	-13.3767
▁shirtless	-13.3769
▁ranch	-13.377
essed	-13.377
▁modif	-13.3771
▁nosy	-13.3771
▁wre	-13.3772
talks	-13.3772
▁conten	-13.3772
aud	-13.3773
booked	-13.3773
▁foodwater	-13.3773
stand	-13.3774
tome	-13.3774
▁partial	-13.3774
inshed	-13.3775
▁postal	-13.3775
never	-13.3775
▁payback	-13.3776
aware	-13.3776
▁rece	-13.3777
ntries	-13.3777
rns	-13.3777
▁mega	-13.3778
▁cobb	-13.378
idently	-13.378
glad	-13.378
them	-13.3781
▁unpacking	-13.3781
idi	-13.3782
▁devices	-13.3782
▁layoffs	-13.3782
▁mushrooms	-13.3782
▁textbooks	-13.3782
▁spoons	-13.3782
▁champions	-13.3783
▁downloaded	-13.3783
▁expressions	-13.3783
▁plugg	-13.3785
▁spotless	-13.3786
▁defined	-13.3787
▁burr	-13.3788
every	-13.379
ides	-13.3791
▁shopper	-13.3791
▁unsee	-13.3792
▁moron	-13.3792
▁kin	-13.3792
▁squeak	-13.3792
eem	-13.3794
▁intervene	-13.3796
▁barbie	-13.3796
▁sucker	-13.3796
▁leaders	-13.3797
▁builder	-13.38
ingles	-13.3802
▁waddl	-13.3803
ermaid	-13.3803
▁trustful	-13.3804
▁distressed	-13.3804
▁nin	-13.3805
▁frien	-13.3806
▁venting	-13.3806
▁goose	-13.3807
▁wha	-13.3807
ege	-13.3807
▁tran	-13.3811
▁situ	-13.3812
▁inventi	-13.3813
tops	-13.3814
▁passionately	-13.3815
▁gadgets	-13.3816
▁elephants	-13.3816
▁representatives	-13.3816
▁scammers	-13.3816
▁impose	-13.3817
jon	-13.3817
▁daylight	-13.3818
▁feeder	-13.3819
ssa	-13.3819
abies	-13.3819
▁refinish	-13.382
gara	-13.3821
▁independently	-13.3821
▁background	-13.3822
▁revi	-13.3823
▁overspen	-13.3823
▁cloth	-13.3824
▁barefooted	-13.3825
sox	-13.3825
very	-13.3825
▁visitors	-13.3828
gas	-13.383
story	-13.3831
agile	-13.3831
▁cer	-13.3832
▁cring	-13.3832
▁painless	-13.3832
▁recenty	-13.3832
fire	-13.3833
▁peach	-13.3836
▁calmer	-13.3837
▁windy	-13.3837
▁raps	-13.3838
▁stylis	-13.3839
eyed	-13.3843
hi	-13.3843
▁offence	-13.3844
oin	-13.3845
▁predicted	-13.3846
▁intensely	-13.3846
rged	-13.3847
▁johns	-13.3849
▁chapters	-13.385
▁peanuts	-13.385
▁wai	-13.385
▁requirement	-13.3853
quaint	-13.3854
▁ey	-13.3856
shy	-13.3857
ased	-13.3858
▁input	-13.386
ik	-13.3861
▁agreement	-13.3862
▁skateboarding	-13.3862
▁molding	-13.3862
▁weeding	-13.3862
▁alerted	-13.3867
▁forbid	-13.3869
elled	-13.3871
▁jus	-13.3872
olks	-13.3874
gings	-13.3875
▁rigorous	-13.3877
▁pushup	-13.388
▁remov	-13.388
▁delays	-13.3882
icious	-13.3882
osed	-13.3882
aching	-13.3883
▁tofu	-13.3883
▁ropes	-13.3884
▁lumps	-13.3884
▁blanks	-13.3884
▁scouts	-13.3884
▁topics	-13.3884
▁victims	-13.3884
▁blindly	-13.3884
vol	-13.3887
▁interrupted	-13.3888
gam	-13.3889
▁foundation	-13.3889
▁strutt	-13.389
▁missp	-13.3891
▁bulb	-13.3896
rrow	-13.3902
teres	-13.3903
jit	-13.3903
lation	-13.3908
icle	-13.391
▁prop	-13.391
there	-13.3911
▁sel	-13.3912
▁nauseat	-13.3912
sity	-13.3913
▁millionaires	-13.3918
▁bananas	-13.3918
▁castles	-13.3918
▁unawares	-13.3918
ga	-13.3919
▁puff	-13.392
▁sleepovers	-13.3922
▁tunes	-13.3923
▁ingrown	-13.3925
▁daz	-13.3926
rking	-13.3935
▁walkin	-13.3935
▁identif	-13.3943
▁confessing	-13.3944
▁daytime	-13.3945
paint	-13.3946
cefully	-13.3948
▁spo	-13.3949
▁enjoyment	-13.3951
▁louder	-13.3951
▁frames	-13.3952
▁sacrifices	-13.3952
▁croatian	-13.3958
xed	-13.3959
▁tast	-13.3959
▁existing	-13.3966
▁thankless	-13.3976
▁unwar	-13.3984
▁museums	-13.3987
▁recook	-13.399
▁breakups	-13.3992
occurring	-13.3993
▁stained	-13.3994
▁awaken	-13.3998
▁seasonal	-13.4009
▁dared	-13.4009
ji	-13.4011
holes	-13.4012
▁checkouts	-13.4022
▁jeeps	-13.4022
▁perspectives	-13.4022
uffle	-13.4027
▁budd	-13.4028
lands	-13.403
▁flighty	-13.4044
assin	-13.4047
rowing	-13.4047
lem	-13.4049
▁needle	-13.405
▁tryout	-13.4052
▁everyon	-13.4056
▁aisles	-13.4057
▁suspects	-13.4057
▁examine	-13.4066
ewing	-13.4075
mble	-13.4077
will	-13.408
▁tailbon	-13.4089
▁correcting	-13.409
being	-13.4096
▁doubled	-13.4098
▁une	-13.4099
▁mont	-13.4104
▁designing	-13.4107
mans	-13.4107
▁ram	-13.4108
▁copi	-13.4109
▁defi	-13.411
volent	-13.411
nsils	-13.4111
phant	-13.4113
don	-13.4113
▁titles	-13.4127
▁attempts	-13.4127
▁affairs	-13.4127
test	-13.4128
▁disappears	-13.4128
▁exists	-13.4129
▁greatful	-13.413
▁skinn	-13.4133
▁guides	-13.4135
▁singers	-13.4139
▁intel	-13.4142
eebie	-13.4149
▁interviewers	-13.4157
▁babysitters	-13.4163
▁festivals	-13.4163
▁yearbooks	-13.4163
▁hamsters	-13.4163
▁celebrations	-13.4163
▁sweats	-13.4166
talk	-13.4174
▁impo	-13.4196
▁outsider	-13.4197
▁settings	-13.4198
▁artists	-13.4198
▁undercook	-13.4206
▁succeeded	-13.4211
wixt	-13.4225
▁assure	-13.4228
▁gangst	-13.4229
▁bot	-13.4242
▁broker	-13.4247
▁maj	-13.4249
▁gaining	-13.4254
▁denie	-13.426
▁lookin	-13.4266
balling	-13.4267
▁outcomes	-13.4271
▁oblig	-13.4323
▁anim	-13.435
ricky	-13.4367
▁reminders	-13.4368
aine	-13.4368
play	-13.437
▁registers	-13.4379
▁glob	-13.438
raving	-13.4401
▁comforting	-13.4408
gna	-13.4411
liant	-13.4424
▁progressing	-13.4451
▁skilled	-13.4481
▁sodas	-13.449
▁roots	-13.4518
▁prisoner	-13.4526
event	-13.4553
dies	-13.4558
▁buffets	-13.4565
▁sock	-13.4568
▁cock	-13.4571
▁pees	-13.4587
cision	-13.4625
▁runt	-13.4627
▁paths	-13.4638
tems	-13.4664
▁strays	-13.4678
▁greens	-13.468
mping	-13.4719
▁thriller	-13.4757
lp	-13.4762
▁adj	-13.4767
▁cre	-13.4782
fing	-13.4791
▁criticize	-13.4797
▁markets	-13.4797
vered	-13.4816
▁arguments	-13.4832
van	-13.4851
ctu	-13.4858
chool	-13.4863
late	-13.4864
graded	-13.4864
▁screens	-13.4905
▁furb	-13.492
ni	-13.4939
▁youtuber	-13.495
▁starter	-13.4957
▁concentrat	-13.4962
▁machines	-13.499
unt	-13.5061
▁fren	-13.5071
rth	-13.5117
mare	-13.5126
cass	-13.5127
▁exclud	-13.5147
tence	-13.5152
ending	-13.5178
cket	-13.5192
mas	-13.5225
▁ve	-13.5241
▁perpe	-13.5302
▁shell	-13.5344
▁humo	-13.5355
▁probab	-13.5373
ashed	-13.5374
lls	-13.5396
ith	-13.5416
▁prob	-13.542
goats	-13.5443
▁construct	-13.5451
movie	-13.5499
▁chan	-13.5505
fac	-13.5532
▁underestimat	-13.554
▁paralyz	-13.5557
▁bandag	-13.5586
▁violat	-13.5614
uke	-13.5624
▁automat	-13.5646
tching	-13.5657
▁roo	-13.5712
▁packe	-13.5736
ester	-13.5748
ication	-13.5784
▁lazi	-13.5813
▁displeas	-13.5829
nj	-13.5866
root	-13.5898
▁sk	-13.5911
▁hesitat	-13.5952
venge	-13.5961
▁excu	-13.5963
raves	-13.5965
napping	-13.5986
try	-13.6039
peroni	-13.6058
▁jerker	-13.6061
nship	-13.6119
▁craz	-13.6136
▁umb	-13.6159
imaginable	-13.6172
state	-13.6184
▁margin	-13.6192
thes	-13.6248
▁cont	-13.6253
▁expan	-13.6256
fault	-13.6263
orgi	-13.6351
anning	-13.6368
▁suc	-13.6426
▁excell	-13.6441
inds	-13.6441
▁resign	-13.6442
▁supervis	-13.6518
▁apolog	-13.6525
▁devastati	-13.6533
ason	-13.6535
opped	-13.655
llen	-13.6566
▁fav	-13.6599
▁noisie	-13.66
▁committ	-13.6607
▁controll	-13.6655
angled	-13.6717
abbed	-13.6824
tended	-13.6922
▁consum	-13.694
▁succesful	-13.7012
▁pra	-13.7079
mig	-13.7102
teria	-13.7116
ria	-13.7133
ja	-13.7168
▁envi	-13.7245
apping	-13.7261
lace	-13.7285
▁indicate	-13.7305
rbors	-13.7316
rice	-13.7416
abi	-13.7445
▁residenc	-13.752
ull	-13.7591
ents	-13.7691
▁pol	-13.771
lose	-13.7723
▁magn	-13.7739
▁vir	-13.7758
clude	-13.7889
▁emb	-13.7909
tice	-13.7921
rewatching	-13.7952
kle	-13.7966
▁novelt	-13.7972
cul	-13.7976
rbo	-13.7999
iz	-13.8001
▁vol	-13.803
ucky	-13.8048
▁unwa	-13.8067
elon	-13.8141
ran	-13.8171
ization	-13.8206
▁succesfull	-13.8209
▁vaca	-13.8285
rren	-13.8286
lty	-13.829
▁summ	-13.833
▁brows	-13.8351
▁terrif	-13.8376
namic	-13.8398
▁donat	-13.841
tched	-13.8426
▁uncou	-13.8445
▁arrang	-13.8456
digger	-13.8482
roach	-13.8541
ffer	-13.8554
▁rai	-13.8586
▁curt	-13.8674
▁procrastinat	-13.8699
uff	-13.8704
hose	-13.8707
▁devast	-13.8749
supervised	-13.8789
sanity	-13.8814
▁primari	-13.8824
▁apologi	-13.8827
▁bos	-13.8878
▁sho	-13.8929
▁stitch	-13.8933
plan	-13.894
anyon	-13.8954
ift	-13.8972
500	-13.898
▁edit	-13.8995
▁repl	-13.9017
bled	-13.9033
ustling	-13.9085
ault	-13.9103
▁slippe	-13.9183
▁improv	-13.9199
ginally	-13.9214
ship	-13.9249
▁195	-13.9254
oz	-13.9298
▁dilig	-13.9304
ause	-13.934
rab	-13.9355
ray	-13.9485
▁tailgat	-13.9527
▁reassure	-13.9545
▁stresf	-13.9552
rence	-13.9593
▁importa	-13.9657
▁chap	-13.9658
▁moo	-13.9679
▁relocat	-13.9687
▁unsu	-13.9687
lack	-13.9921
▁automati	-13.9994
▁violate	-14.0032
rain	-14.0045
▁bandage	-14.0108
▁paralyze	-14.0119
face	-14.0138
▁underestimate	-14.0145
▁gram	-14.0188
▁eliminate	-14.0201
behaving	-14.0209
structive	-14.0284
specially	-14.0311
▁dispos	-14.0312
99	-14.0329
pol	-14.0393
▁stunne	-14.0401
ugged	-14.0444
nched	-14.0572
eep	-14.059
▁barb	-14.0615
ovie	-14.0644
iv	-14.0653
▁ventur	-14.0677
tones	-14.0787
obey	-14.0822
▁clog	-14.0828
fine	-14.0861
rating	-14.095
excus	-14.1003
earing	-14.1024
▁scr	-14.1107
lement	-14.1153
▁meditate	-14.1164
▁shou	-14.1199
bby	-14.1237
▁susp	-14.1245
ream	-14.1276
perfection	-14.1286
lator	-14.1306
call	-14.1327
▁dazz	-14.1376
▁exper	-14.1408
98	-14.1445
hoe	-14.1446
rella	-14.1499
pathetic	-14.151
catches	-14.1533
atter	-14.1564
▁visti	-14.157
▁remotel	-14.161
hus	-14.1633
▁loo	-14.1645
▁sym	-14.1664
rop	-14.1683
▁electr	-14.1717
roke	-14.1732
▁slic	-14.1751
cial	-14.1795
cker	-14.1799
▁rag	-14.1806
▁repres	-14.1837
▁physi	-14.1906
rangers	-14.1926
▁guil	-14.1946
rial	-14.196
▁breat	-14.196
gg	-14.1977
▁sha	-14.1981
▁grate	-14.1984
serve	-14.2
rent	-14.2007
▁justifi	-14.203
rando	-14.2036
zza	-14.2056
▁shar	-14.2083
05	-14.2103
bbed	-14.2133
▁reli	-14.2162
ovi	-14.2171
ken	-14.2197
cho	-14.2198
aid	-14.2208
▁hustl	-14.222
gical	-14.2239
stalled	-14.2263
▁deter	-14.2264
cup	-14.2302
brid	-14.234
▁fel	-14.2343
ctua	-14.2355
mu	-14.2359
ooties	-14.2377
nig	-14.2445
any	-14.2488
▁biz	-14.2507
▁vigor	-14.2514
stocked	-14.2519
ajes	-14.2526
▁invention	-14.2526
▁mol	-14.2537
▁sem	-14.2546
niversity	-14.2635
▁spac	-14.2639
onald	-14.2641
▁clums	-14.2657
rati	-14.2661
▁reschedul	-14.2667
▁84	-14.2697
watche	-14.2708
omb	-14.2709
lice	-14.2726
▁scen	-14.2766
urity	-14.2807
act	-14.2816
assigned	-14.2819
▁edg	-14.282
▁tonsil	-14.2821
him	-14.2827
bu	-14.2833
aughter	-14.2842
literate	-14.2886
aint	-14.2905
ggles	-14.2935
cute	-14.2948
▁terri	-14.2957
ancing	-14.2962
invent	-14.2973
exit	-14.2995
▁shopp	-14.2998
▁perp	-14.3016
crushing	-14.3047
ble	-14.3049
armed	-14.3068
cessary	-14.3077
▁choo	-14.31
magine	-14.3106
mbling	-14.3106
▁pric	-14.3112
▁defini	-14.3135
▁porta	-14.3159
mmer	-14.3162
▁authorit	-14.3208
fu	-14.3215
▁distr	-14.3221
ominated	-14.3227
▁tu	-14.3227
uate	-14.3239
ugh	-14.3251
heated	-14.3275
▁spi	-14.3277
nste	-14.3285
ormat	-14.3287
▁jou	-14.3292
▁hawai	-14.3307
▁ferr	-14.3313
▁strut	-14.3335
▁pictur	-14.3347
ction	-14.3351
▁syr	-14.3361
▁pep	-14.3361
▁dev	-14.3375
entative	-14.3382
ov	-14.3386
▁waterbu	-14.3386
llet	-14.3386
cle	-14.3398
ebo	-14.3401
▁140	-14.3403
scams	-14.3407
ntity	-14.3408
▁butterfl	-14.3409
bbly	-14.341
pric	-14.341
tag	-14.3415
baby	-14.3418
protected	-14.3421
night	-14.3429
▁disa	-14.3436
fra	-14.344
words	-14.3441
bilities	-14.3445
▁scor	-14.346
pologize	-14.3474
tleast	-14.3476
fraid	-14.3477
nag	-14.3479
ngle	-14.348
ctual	-14.3482
▁unco	-14.3482
obbery	-14.3484
▁ric	-14.3485
▁involv	-14.3488
gether	-14.3489
bla	-14.349
finished	-14.3498
dental	-14.35
lusive	-14.3504
arned	-14.3506
▁eac	-14.3506
chan	-14.3512
anger	-14.3514
centered	-14.3541
▁typ	-14.3542
loss	-14.3543
reaks	-14.3551
medown	-14.3554
▁450	-14.3555
▁stor	-14.3556
▁conv	-14.3563
▁emba	-14.3565
icate	-14.3568
▁buddin	-14.3574
ddling	-14.3574
▁tolerat	-14.3575
▁coun	-14.3576
tively	-14.3581
sigh	-14.3581
ification	-14.3587
unning	-14.36
unky	-14.3601
▁nausea	-14.3601
▁zo	-14.3602
arger	-14.3603
given	-14.3605
lif	-14.3605
▁squea	-14.3609
tangle	-14.361
tropic	-14.3619
equate	-14.3622
▁convin	-14.3627
troverted	-14.3629
▁treasur	-14.363
hort	-14.3632
icated	-14.3634
spire	-14.3635
spiration	-14.3638
volved	-14.3639
race	-14.3641
lier	-14.3641
formation	-14.3642
trospect	-14.3643
lved	-14.3646
▁bou	-14.3647
▁motivat	-14.3649
▁pleasur	-14.3654
▁opposi	-14.3655
lap	-14.3656
ologies	-14.3656
spiring	-14.3658
uble	-14.3659
▁splat	-14.3659
body	-14.366
▁lov	-14.366
oops	-14.3663
cause	-14.3663
fled	-14.3666
shares	-14.3667
hile	-14.3668
▁appreciat	-14.3669
▁figu	-14.3672
▁driv	-14.3673
▁urge	-14.3673
▁chir	-14.3673
trap	-14.3674
saver	-14.3674
elieve	-14.3674
▁casi	-14.3676
▁congre	-14.3677
▁enthusias	-14.3677
▁schedul	-14.3677
▁bra	-14.3678
gency	-14.3678
elli	-14.368
▁disturb	-14.3681
▁disappoint	-14.3682
▁exhaust	-14.3682
▁athelete	-14.3683
▁beyblade	-14.3683
▁podcast	-14.3683
▁pyramid	-14.3683
▁siren	-14.3683
▁scribble	-14.3683
▁posses	-14.3683
▁worrie	-14.3683
▁responsibil	-14.3683
▁chang	-14.3683
▁trolley	-14.3684
ections	-14.3684
titude	-14.3684
▁bookcase	-14.3685
▁immigrant	-14.3685
▁kidnap	-14.3686
shot	-14.3686
▁craw	-14.3686
▁conclusion	-14.3687
▁staple	-14.3687
▁promis	-14.3687
airs	-14.3687
▁certif	-14.3687
ieving	-14.3688
▁antibiotic	-14.3689
▁infomercial	-14.3689
▁preview	-14.3689
▁suburb	-14.3689
▁tariff	-14.369
▁donation	-14.369
▁resource	-14.369
▁seagull	-14.369
▁trend	-14.3691
▁qualification	-14.3691
▁supplement	-14.3691
▁solv	-14.3691
▁doughnut	-14.3692
▁nacho	-14.3692
▁republican	-14.3692
▁instruction	-14.3693
matic	-14.3693
camp	-14.3693
▁ingredient	-14.3693
▁circu	-14.3693
▁acces	-14.3693
▁congratu	-14.3693
▁warrior	-14.3694
▁christma	-14.3694
▁throne	-14.3694
ickering	-14.3694
▁busines	-14.3694
▁reconcil	-14.3694
▁creature	-14.3694
▁stair	-14.3694
▁absolut	-14.3695
▁brownie	-14.3696
▁gril	-14.3697
load	-14.3697
▁earring	-14.3697
▁select	-14.3699
▁announc	-14.37
▁evacuat	-14.37
▁coordinat	-14.37
calyp	-14.37
▁folder	-14.37
bbing	-14.3701
▁dehydrat	-14.3701
▁convict	-14.3701
organize	-14.3701
life	-14.3701
▁expi	-14.3702
▁spook	-14.3702
lcomed	-14.3702
▁unsettl	-14.3702
▁recogniz	-14.3702
lax	-14.3703
angle	-14.3703
▁divorc	-14.3703
▁certi	-14.3703
▁engag	-14.3703
erior	-14.3703
▁rescu	-14.3703
aunt	-14.3705
▁accord	-14.3705
▁werewol	-14.3705
hom	-14.3705
▁suspend	-14.3705
▁attach	-14.3705
▁zi	-14.3706
▁intimidat	-14.3707
due	-14.3707
▁gene	-14.3707
▁infuriat	-14.3707
port	-14.3708
▁satisfy	-14.3708
▁unexpect	-14.3708
stalgia	-14.3709
▁empath	-14.3709
▁frequen	-14.3709
arms	-14.3709
nounced	-14.371
praying	-14.371
▁aspirin	-14.3711
▁nominat	-14.3712
generat	-14.3712
quar	-14.3714
▁bloc	-14.3714
▁rott	-14.3714
consol	-14.3715
noying	-14.3715
▁dia	-14.3715
val	-14.3715
▁heartbreak	-14.3716
weigh	-14.3716
▁littl	-14.3716
love	-14.3716
graphs	-14.3716
195	-14.3716
▁clim	-14.3717
check	-14.3717
ivers	-14.3717
medic	-14.3718
▁activ	-14.3718
▁favo	-14.3718
▁intrigue	-14.3718
colli	-14.3718
weight	-14.3719
▁clea	-14.3719
bulb	-14.3719
controll	-14.3719
characteristic	-14.3719
commercial	-14.3719
responsive	-14.3719
cooperati	-14.3719
warming	-14.3719
deserved	-14.3719
▁unnotice	-14.3719
crackers	-14.372
fighter	-14.372
37	-14.372
protection	-14.372
typical	-14.372
participat	-14.372
renovat	-14.372
clerk	-14.372
satur	-14.372
gran	-14.372
changer	-14.372
prepared	-14.372
▁entitle	-14.372
ordinary	-14.372
chee	-14.372
jazz	-14.372
villa	-14.372
searching	-14.372
built	-14.372
bumps	-14.3721
solve	-14.3721
fresh	-14.3721
▁difficul	-14.3721
categor	-14.3721
comfortable	-14.3721
explor	-14.3721
advisor	-14.3721
bargain	-14.3721
hunter	-14.3721
surface	-14.3721
sync	-14.3721
▁frustrate	-14.3721
easy	-14.3721
shirt	-14.3721
grass	-14.3721
▁ashame	-14.3721
wheeler	-14.3721
present	-14.3721
humiliating	-14.3721
millionaire	-14.3721
turned	-14.3721
world	-14.3721
worms	-14.3721
grudge	-14.3721
achiev	-14.3721
coaster	-14.3721
code	-14.3721
instinct	-14.3721
pitbull	-14.3721
▁doub	-14.3721
build	-14.3721
screen	-14.3721
▁afrai	-14.3721
scale	-14.3721
harmed	-14.3721
belief	-14.3721
display	-14.3721
mobile	-14.3721
published	-14.3721
function	-14.3721
hammer	-14.3721
steady	-14.3721
transmission	-14.3721
wrap	-14.3721
sincere	-14.3721
▁devastate	-14.3721
marine	-14.3721
caramel	-14.3721
describe	-14.3721
geez	-14.3721
rejection	-14.3721
bang	-14.3721
extend	-14.3721
7	-15.6921
